<pad>	0
<s>	0
</s>	0
<unk>	0
[SEP]	0
교환	0
수리	0
▁	-1.10941
)	-3.90588
(	-3.93669
▁후	-4.80444
▁점검	-4.8243
-	-4.85517
▁완료	-5.06593
▁정상작동	-5.08047
▁타이어	-5.09779
▁확인	-5.09865
▁정상	-5.16035
후	-5.1747
▁TCS	-5.22863
▁현장방문	-5.29889
▁장애처리비	-5.32477
▁전구	-5.33086
▁배터리	-5.36964
우	-5.48414
▁이상	-5.51724
▁경고등	-5.56438
▁보충	-5.58897
▁후방카메라	-5.74605
▁네비게이션	-5.76104
▁워셔액	-5.78614
▁공기압	-5.78943
▁AS	-5.81071
▁R	-5.82416
로	-5.83422
토	-5.84007
▁운전석	-5.84904
▁아	-5.85151
랩	-5.85534
완료	-5.92214
▁차량	-5.96488
▁-	-5.97755
카드	-5.97842
▁조수석	-5.97963
▁요청	-5.98026
▁내비게이션	-5.98061
▁H	-5.99089
▁부품	-6.01068
▁하이패스	-6.05691
인치	-6.06943
▁시운전	-6.12485
▁하	-6.17015
▁시동	-6.18063
▁작동	-6.18194
▁펑크	-6.20756
▁SD	-6.21433
점검	-6.24329
▁초기화	-6.26573
▁포켓파이	-6.26735
▁보증대행비	-6.32044
▁확인가능	-6.33173
▁방문	-6.33861
▁소거	-6.34414
초기화	-6.35841
▁블랙박스	-6.36638
▁연결	-6.36914
▁불가	-6.37727
▁내비	-6.37814
▁장애처리	-6.38046
▁케이블	-6.3917
▁네비	-6.42291
▁불량	-6.43894
이	-6.45462
시	-6.45602
H	-6.48494
요청	-6.48666
▁라이트	-6.49841
▁탁송	-6.55646
▁배선	-6.57817
딜리버리	-6.58345
▁방전	-6.58738
▁해당업체	-6.59527
에	-6.61442
▁주유카드	-6.63514
▁진행	-6.64689
▁중	-6.64826
▁브레이크	-6.64989
▁전	-6.66652
▁어셈블리	-6.68104
▁입고	-6.69012
TCS	-6.69273
▁보증대행료	-6.69474
탁송	-6.70582
▁전원	-6.70821
장착	-6.71524
▁해제	-6.7163
▁인입	-6.71969
▁공임	-6.7316
▁운	-6.73836
▁충전카드	-6.74244
▁브레이크등	-6.74896
▁UMB	-6.7709
▁방문요청	-6.78859
도	-6.79205
▁점프	-6.79324
▁재연결	-6.80757
▁주간주행등	-6.82927
▁회수	-6.83237
▁이하	-6.84075
서	-6.85737
▁거치대	-6.86202
▁전조등	-6.86272
▁조치	-6.86302
진행	-6.8729
▁와이퍼	-6.87632
고	-6.87695
▁탈거	-6.88451
▁고장	-6.88801
▁전우	-6.93147
>	-6.932
▁파손	-6.93487
▁조	-6.94281
쪽	-6.9518
▁전좌	-6.95448
▁거치형	-6.95577
▁조정	-6.95588
▁키아웃	-6.9684
일	-6.97071
▁장착	-6.97184
▁사고조사	-6.98256
인	-6.99147
▁단말기	-6.99268
▁신규	-7.02495
▁소음	-7.0289
케이블	-7.03441
백색더블	-7.04007
넥센	-7.0406
▁테스트	-7.04252
는	-7.07049
결과	-7.07155
▁필요	-7.07362
탁송비	-7.07475
▁고정	-7.08296
트	-7.08947
확인	-7.08949
가	-7.10431
불가	-7.10838
은	-7.11985
▁휠	-7.13938
이상	-7.14762
▁우측	-7.15324
▁정상작동함	-7.15677
▁문제어	-7.16064
▁앞	-7.17638
▁엔진오일	-7.17797
▁접촉불량	-7.17895
불량	-7.18643
▁특수세차	-7.1875
전구	-7.19405
▁오디오	-7.21535
+	-7.22123
비	-7.22235
선	-7.22424
▁자재	-7.23352
▁후우	-7.23509
▁존복귀	-7.23966
▁본	-7.24063
▁뒤	-7.24493
▁비치	-7.24655
▁상태	-7.25396
▁블루투스	-7.25502
▁제동등	-7.26567
▁커넥터	-7.27021
함	-7.27681
공임	-7.28063
▁공임비	-7.28386
▁재장착	-7.29552
▁GPS	-7.29943
카워시	-7.30089
▁점등	-7.30132
▁전체	-7.30588
▁얼어	-7.30636
▁정상동작	-7.31867
위치	-7.31998
재시작	-7.32005
단말기	-7.32991
▁앞범퍼	-7.34037
건	-7.34478
전	-7.34566
한	-7.35478
▁좌측	-7.37503
▁최	-7.37597
IQ	-7.37737
▁점검비	-7.38248
▁작동불가	-7.38613
▁좌	-7.39803
지	-7.39898
현장점검	-7.40335
▁안	-7.40496
입고	-7.40861
▁(	-7.41174
형	-7.42648
▁퓨즈	-7.42779
▁정상적	-7.4287
▁매칭	-7.4294
▁사이드미러	-7.43316
▁후좌	-7.43707
▁확인완료	-7.4387
▁전패드	-7.44102
▁하향등	-7.44144
▁부품대	-7.44262
▁센터	-7.44288
▁작동점검	-7.44868
후정상	-7.4576
조수석	-7.46919
▁통신	-7.47234
▁시트	-7.4727
습	-7.47432
▁안됨	-7.48054
통신	-7.49433
▁정위치	-7.4946
차량	-7.4984
확인가능	-7.49866
상	-7.5055
▁분실	-7.50843
▁전좌타이어	-7.51038
타이어	-7.51663
▁업체방문필요	-7.5225
▁개	-7.5259
▁분실물	-7.53675
부품	-7.5449
▁현장조치	-7.5497
▁시동유지	-7.55224
▁전우타이어	-7.56049
▁도어	-7.57264
▁재	-7.57657
조치	-7.57707
▁장애	-7.57972
▁얼라이먼트	-7.58005
AS	-7.5824
업그레이드	-7.58274
▁전면	-7.58777
이어	-7.5885
니	-7.59408
▁유심	-7.59889
▁손상확인	-7.59964
네비게이션	-7.59973
▁증상	-7.60243
▁주차	-7.60415
▁보증	-7.61136
▁제거	-7.61573
▁작업	-7.61766
▁발생	-7.62088
현장처리	-7.62117
▁녹인	-7.62249
▁전원케이블	-7.6228
기	-7.63381
입	-7.64839
R	-7.65155
▁상	-7.65921
▁오류	-7.661
▁딜리버리	-7.66239
▁ODO	-7.66803
▁재부착	-7.66839
▁OBD	-7.66857
▁탈부착	-7.67035
▁유지	-7.67901
▁값	-7.68361
내비게이션	-7.68676
▁재조립	-7.69458
브레이크	-7.70104
등	-7.70475
▁재결합	-7.70708
▁단말	-7.71083
▁VOC	-7.71772
시리즈	-7.72859
정상	-7.72889
통	-7.73372
▁재시작	-7.73672
▁트렁크	-7.73774
앞	-7.73978
▁업데이트	-7.74101
▁엔진경고등	-7.74245
▁후패드	-7.74411
운전석	-7.74865
후방카메라	-7.75591
▁방향지시등	-7.75711
▁버튼	-7.76544
▁대납	-7.76603
나	-7.77004
▁IQ	-7.77786
▁이동	-7.77813
절	-7.78285
▁위치	-7.78895
다	-7.78992
▁화면	-7.79517
▁피	-7.79519
부	-7.79542
▁재부팅	-7.79769
▁주행	-7.79822
▁내비정상작동	-7.80094
▁별도	-7.8019
▁기존	-7.80211
▁탈락	-7.80996
용	-7.81243
▁재고정	-7.81257
▁확인불가	-7.81339
드	-7.82812
프	-7.82964
▁충전	-7.8333
금	-7.8377
▁카드	-7.84419
수	-7.84613
▁에어컨	-7.84922
▁변경	-7.8527
더블	-7.85417
계	-7.85545
▁소리	-7.85691
내비	-7.85703
배터리	-7.86235
▁원	-7.86572
▁부착	-7.86888
판	-7.88329
경고등	-7.88416
멘트	-7.88959
▁단선	-7.90256
▁현장	-7.90703
해당업체	-7.90719
▁라이트전구	-7.90746
정기업무	-7.90817
▁잭	-7.91305
후정상작동확인	-7.91432
AH	-7.91618
스	-7.91878
센서	-7.91904
▁스캐너	-7.92717
작업	-7.92767
▁동작	-7.93585
단자	-7.93595
▁작업비	-7.93991
▁디스크	-7.94308
▁백판넬	-7.94502
도어	-7.94531
▁CSA	-7.95373
▁사	-7.95471
상태	-7.95472
▁BSD	-7.96287
워셔액	-7.96364
▁주차장내	-7.9637
▁메모리	-7.96579
▁뒷	-7.96947
▁후우타이어	-7.96951
VOC	-7.97179
▁문제	-7.98091
▁기억소거	-7.98182
블랙박스	-7.98671
▁쏘카	-7.98768
배선	-7.98935
▁점프시동	-7.99111
▁점검요청	-7.99195
▁정상확인	-7.99521
됨	-7.99771
번호	-7.99926
▁펑크흔적	-7.99935
하	-7.99953
▁배터리방전	-8.00246
음	-8.00449
▁필터	-8.01297
▁스캐너진단	-8.01777
▁스로틀바디	-8.0253
마일캡	-8.02884
▁더	-8.02969
▁매립	-8.03368
▁키박스	-8.03769
중	-8.03779
겠	-8.03993
백색	-8.04351
안됨	-8.04421
대	-8.04721
원	-8.04853
시동	-8.04955
▁BNK	-8.05076
▁확인됨	-8.05086
정상작동	-8.05092
▁분	-8.05282
▁메모리카드	-8.06594
적	-8.06769
필요	-8.0743
▁워셔액통	-8.07509
오류	-8.07732
▁현재	-8.07809
▁출장	-8.0849
▁점검후	-8.08505
▁건	-8.08661
▁엔진	-8.08768
▁작동하지	-8.08799
▁냉각수	-8.08964
엔	-8.09307
라이트	-8.09462
SD	-8.09477
▁좌우	-8.09529
▁탁송비	-8.09538
▁보조	-8.09711
작동	-8.09806
보정작업	-8.10197
▁빼	-8.10646
▁차키	-8.10882
▁발송	-8.11109
▁업체	-8.11163
만	-8.12037
▁넥센	-8.12628
▁점프후	-8.12681
▁CS	-8.1273
좌	-8.12863
▁휴즈	-8.13164
▁기스제거	-8.14037
▁핸들	-8.14618
▁라이트경고등	-8.14624
▁ECU	-8.1486
▁RA	-8.14962
▁재인입시	-8.15006
▁번호판	-8.15052
▁점화플러그	-8.15277
▁차량점검	-8.15304
▁내부	-8.1546
▁블박	-8.16465
아	-8.16753
해	-8.16986
▁미등	-8.1703
▁후방	-8.17205
▁실행	-8.17439
▁장애블락	-8.1827
▁손상	-8.18343
주	-8.18415
▁범퍼	-8.18696
하이패스	-8.18836
▁주유	-8.19264
▁교정	-8.1986
G	-8.1987
▁빠짐	-8.20014
내	-8.20313
▁업그레이드	-8.20558
▁정상작동확인	-8.21479
장	-8.21528
▁스마트키	-8.22533
▁컴파운드	-8.22593
▁오작동	-8.22613
접수	-8.2264
▁회수완료	-8.23079
▁세트	-8.23384
▁지상	-8.2355
▁차고지	-8.2358
▁해동	-8.23885
S	-8.24359
▁유리	-8.24764
동	-8.25441
했으나	-8.25796
▁재설정	-8.25952
인치이상	-8.26637
▁센서	-8.26677
▁모터	-8.27585
▁소켓	-8.27797
발생	-8.27823
▁크리닝	-8.28316
▁불가능	-8.28371
▁정상안내멘트	-8.28666
림	-8.28851
▁진단	-8.29226
확인불가	-8.29395
장애처리비	-8.29446
▁조치완료	-8.29906
분	-8.29944
▁현장점검	-8.30021
▁흔적	-8.30645
▁리셋	-8.30677
▁와이파이	-8.30798
▁TPMS	-8.30799
▁재삽입	-8.30845
리	-8.3164
▁모두	-8.31737
▁요소수	-8.31787
사	-8.31829
▁비용	-8.32337
▁보정작업	-8.32732
리즈	-8.32879
터	-8.33537
▁내	-8.33541
▁외부	-8.33907
▁악취	-8.34037
▁새	-8.34042
▁KIT	-8.34255
▁쏘카존	-8.34291
▁시트탈거	-8.34407
▁정리	-8.34469
▁후좌타이어	-8.34577
컨넥터	-8.34667
▁공기압보충완료	-8.34724
▁점화코일	-8.35675
▁차량내	-8.35875
▁매칭요청	-8.35935
공기압	-8.36167
▁시동불가	-8.36395
▁배터리점프	-8.37406
차	-8.37559
리터	-8.37609
와이퍼	-8.37635
▁재접점	-8.38085
구	-8.38622
▁삭제	-8.3868
▁현대자동차	-8.38867
▁접점	-8.38868
▁스위치	-8.38974
부분	-8.39041
▁뒷범퍼	-8.39475
역	-8.3948
▁대납비	-8.39595
▁보조제동등	-8.3964
▁분사	-8.40655
▁설정	-8.40843
▁배선정리	-8.40939
을	-8.40992
근	-8.41002
▁프론트	-8.41318
포켓파이	-8.41707
▁변속기	-8.43094
▁양쪽	-8.43162
▁키	-8.43405
범퍼	-8.43418
▁재설치	-8.43546
양	-8.43579
▁엔진체크등	-8.43694
▁전압	-8.43714
조정	-8.44164
▁단자	-8.4456
센터	-8.44566
밑	-8.44999
▁안전벨트	-8.45005
OCVVFS	-8.45252
파손	-8.45569
▁USB	-8.46189
▁터치업	-8.46217
▁재비치	-8.46238
며	-8.46356
주유카드	-8.46837
연결	-8.47305
으나	-8.47393
▁트립	-8.47678
더	-8.47806
정	-8.48018
버튼	-8.48251
펑크	-8.49039
▁계기판	-8.49172
리셋	-8.49211
곡	-8.4959
가능	-8.4982
면	-8.50169
▁전좌우	-8.50312
▁더블	-8.50623
뒤	-8.50675
보	-8.50955
ECU	-8.51132
운	-8.51136
전원	-8.51302
▁미재현	-8.51624
재삽입후	-8.51795
▁패드	-8.52062
▁다	-8.52524
▁미션	-8.5264
▁오일	-8.52667
▁존	-8.52758
어	-8.53144
▁구매	-8.53319
▁옆	-8.53407
▁하단	-8.536
F	-8.54328
▁재배치	-8.54365
AGM	-8.54446
안	-8.54474
선제조치	-8.54655
고정	-8.55036
▁부족	-8.55552
▁새로	-8.55618
스위치	-8.55689
시트	-8.56345
크	-8.56495
립	-8.56633
▁커버	-8.56792
▁수정	-8.56922
▁정품	-8.56952
문제어	-8.57976
것	-8.58133
▁강제	-8.5817
▁진단기	-8.58237
▁안개등	-8.58279
▁STS	-8.5828
▁맵센서	-8.58294
▁문	-8.58467
▁레버	-8.58575
▁카	-8.58798
B	-8.5889
를	-8.58897
탈거	-8.59187
▁채	-8.5922
▁에어컨필터	-8.59977
▁터치	-8.59999
엔진	-8.6022
▁긴출	-8.61244
▁낮아	-8.61268
▁노즐	-8.61285
방전	-8.61859
커넥터	-8.62017
사고조사	-8.62371
장애	-8.6253
거치대	-8.63013
▁작동함	-8.63282
▁헤드램프	-8.63305
▁촉매	-8.63452
문제	-8.63503
리더기	-8.63897
백색싱글	-8.6392
▁운행	-8.63921
시운전	-8.64155
▁후면	-8.64184
▁번	-8.64459
오	-8.64511
▁이물질	-8.6454
▁올뉴	-8.64608
▁유닛	-8.6465
▁유리관	-8.64775
조	-8.65195
K	-8.65487
특	-8.66009
▁통	-8.66237
▁수령	-8.66264
▁브레이크전구	-8.66357
▁부착완료	-8.66792
▁시도	-8.66923
▁가능	-8.66948
▁레이	-8.67254
소음	-8.67297
부품값	-8.67798
단말	-8.67871
▁청소	-8.68204
고장	-8.6825
▁주차장	-8.68443
▁전면유리	-8.68456
▁출력	-8.68548
W	-8.69145
볼트	-8.69163
단	-8.69201
필러	-8.69205
데	-8.69238
▁가스켓	-8.69782
라인	-8.6983
▁주말	-8.69841
자동차	-8.69882
좌우	-8.70047
▁주행등	-8.70156
된	-8.70301
▁점프작업	-8.70309
▁미	-8.70509
▁차량위치확인	-8.70594
되는	-8.70657
▁분리	-8.70706
우측	-8.70949
게	-8.71263
▁빠져	-8.71625
▁추정	-8.7165
▁계속	-8.71669
양쪽	-8.72017
▁오디오버튼	-8.72195
어셈블리	-8.72758
번	-8.73188
네비	-8.73189
▁하부	-8.73618
좌측	-8.73685
화면	-8.73829
휠	-8.73921
▁사고	-8.73944
▁정상작동하지	-8.74293
지만	-8.74302
퓨즈	-8.74465
비용	-8.74548
▁현상	-8.74558
▁얼라인먼트	-8.74646
▁완전	-8.74691
▁경고등소거	-8.74981
▁부동액	-8.75176
▁정비	-8.75429
▁모듈	-8.7559
▁후방영상	-8.75625
▁전방레이	-8.75665
값	-8.75693
포함	-8.75704
▁다시	-8.75802
▁지하층	-8.7596
▁연결불가	-8.76027
▁경	-8.76031
매트	-8.76307
▁B	-8.7632
물	-8.76407
커버	-8.771
▁공기압보충	-8.77479
▁사이드브레이크	-8.77565
▁사이드	-8.79307
T	-8.79785
▁배기	-8.79858
가스켓	-8.79906
현장방문	-8.79957
▁문개방	-8.79981
▁엔진체크	-8.80321
제어	-8.80701
화	-8.80942
▁재방문	-8.80996
▁틀림	-8.81222
▁유류	-8.81223
▁마감재	-8.81372
A	-8.81429
▁긴급출동	-8.81466
▁코일	-8.81495
▁쌍용자동차	-8.81533
▁바디	-8.8165
▁오염	-8.82066
▁점검시	-8.82073
▁TCU	-8.82073
거	-8.82468
기본점검	-8.82576
주차장	-8.82595
업데이트	-8.82857
▁추후	-8.83045
▁시거잭	-8.83436
▁부분	-8.84143
▁소리출력	-8.84211
D	-8.84567
과	-8.8471
▁휀다	-8.84843
▁일	-8.85032
미러	-8.85068
N	-8.85131
감도	-8.85319
▁인터넷	-8.85505
▁우	-8.85803
▁문제로	-8.85873
치	-8.85879
▁통합경고등	-8.85893
▁입고요청	-8.85927
▁후방센서	-8.85976
▁AGM	-8.86412
편	-8.86479
프론트	-8.86481
싱글	-8.86533
광	-8.86816
국	-8.86835
문	-8.86882
디	-8.86889
▁모든	-8.87434
딜리버리비	-8.87583
▁미작동	-8.87646
▁이동주차	-8.8772
양산	-8.87784
▁관련	-8.87806
밸브	-8.87881
▁분유지	-8.87906
LH	-8.88097
▁A	-8.88645
▁언더커버	-8.88665
▁메인	-8.88827
문제로	-8.88874
▁운전석앞	-8.8895
베어링	-8.89169
▁스	-8.89352
▁기능	-8.89391
▁조절	-8.89474
▁CAN	-8.89772
포	-8.89787
▁차	-8.89814
전체	-8.89945
▁통신불가	-8.90359
▁주행소음	-8.90714
과거	-8.91549
주입	-8.91593
X	-8.91817
▁반복	-8.91819
▁회	-8.91957
보증	-8.92591
▁이동후	-8.92648
본체	-8.93024
해드램프	-8.93146
▁후진	-8.93456
시리얼	-8.93515
헤드라이트	-8.93725
너	-8.93961
▁스로틀	-8.94206
▁컨트롤	-8.94272
▁대	-8.94582
소거	-8.94667
트림	-8.94784
램프	-8.94835
키	-8.94847
P	-8.95019
존	-8.95332
이하	-8.95472
위	-8.95615
모뎀	-8.95646
▁회수요청	-8.95843
▁매니폴드	-8.95889
이라	-8.95967
▁실내등	-8.96346
▁주유구	-8.9642
범	-8.96558
▁입고정비	-8.96721
▁떨림	-8.96807
▁접촉	-8.96825
보충	-8.96844
편도	-8.97052
장치	-8.97288
▁RH	-8.97368
▁층	-8.97544
처리	-8.9772
량	-8.97897
▁파스	-8.98142
▁메인배선	-8.98177
우체	-8.98687
진	-8.98723
개	-8.98737
▁과거형	-8.98984
▁사용	-8.99025
심	-8.99226
품	-9.00161
식	-9.00311
석	-9.00585
져	-9.00611
t	-9.00658
파츠	-9.00658
제대	-9.00706
▁오	-9.00804
정검	-9.01062
▁수거	-9.01237
▁파워	-9.01278
▁앞유리	-9.01317
▁전디스크	-9.01488
현장조치불가	-9.01614
▁이용	-9.01967
벨트	-9.02527
마모로	-9.02582
▁뒷문	-9.03642
▁오토큐	-9.03799
의	-9.03828
▁특이사항	-9.03918
▁같	-9.03951
현장	-9.03959
액	-9.04356
▁들어오지	-9.0459
모터	-9.04751
언더커버	-9.04804
브레이크등	-9.05
비치완료	-9.056
라이트전구	-9.05661
▁T	-9.0581
힘	-9.06002
▁밧데리	-9.06231
출	-9.06253
TCU	-9.06438
플레이	-9.06543
▁잘	-9.06576
▁중앙	-9.06603
관련	-9.07175
인입	-9.07224
클러치	-9.07526
L	-9.07592
▁현대	-9.07782
▁양호	-9.07978
앞범퍼	-9.08237
마트	-9.08335
천	-9.08345
오픈	-9.0835
터미널	-9.08351
매니저	-9.08356
하였으나	-9.08475
▁후측방	-9.08524
▁지하	-9.087
▁봉인	-9.08834
▁발판	-9.08841
여부	-9.08909
▁등기	-9.08926
▁스케너	-9.08962
▁전혀	-9.08969
▁나오지	-9.08976
▁멈춤	-9.09013
▁긴급요청	-9.09148
▁해동작업	-9.09157
션	-9.09282
TX	-9.0939
BX	-9.09499
유니트	-9.09982
▁히터	-9.10409
▁주차완료	-9.10534
측	-9.10632
▁점검필요	-9.10637
테스트	-9.11365
탈착	-9.11404
모듈	-9.1145
▁RPM	-9.1152
▁키인식	-9.11566
▁증상미재현	-9.11568
▁동물털	-9.11622
정상작동확인	-9.11727
▁음영지역	-9.12054
▁물	-9.12156
▁타이어공기압	-9.12209
▁태	-9.12443
접촉불량	-9.12533
▁수	-9.12624
현대자동차	-9.12832
▁S	-9.13142
맵	-9.13142
▁포켓파이불량	-9.13194
▁연료	-9.13342
메모리	-9.13393
BNK	-9.13413
▁주입	-9.13462
주행시	-9.13886
▁신호	-9.14116
▁산소센서	-9.14179
빠짐	-9.14299
▁스마트	-9.14566
▁공기압경고등	-9.14749
교정	-9.149
임	-9.15042
▁분해후	-9.15838
▁리어	-9.16051
▁마모	-9.16441
▁필요함	-9.16622
른	-9.1664
VFS	-9.16663
▁포맷	-9.16683
보덴	-9.16683
이그니션	-9.16683
▁주변	-9.16685
사고팀	-9.16686
까지	-9.16691
모드	-9.16706
▁화면이	-9.1673
▁파인	-9.16776
▁착불	-9.16954
▁세척	-9.16955
여	-9.16963
▁옥스트라	-9.17315
▁문구	-9.17426
필요함	-9.17636
종	-9.17659
▁클리닝	-9.17677
BXFL	-9.17861
▁함	-9.17974
옆	-9.17982
블박회수	-9.1802
패드	-9.18184
렉	-9.18523
시스템	-9.18613
블	-9.18623
방문	-9.18653
▁처리	-9.19501
▁경고	-9.19551
▁추가인입	-9.19604
▁외	-9.19637
▁입고점검필요	-9.1995
▁전륜	-9.2007
휀다	-9.20189
▁탈착	-9.20244
성	-9.20406
▁스피커	-9.20411
▁내비초기화	-9.20654
XL	-9.20741
만원	-9.20823
증상	-9.20879
▁입고점검	-9.21076
경고등소거	-9.21226
OFF	-9.21588
좌석	-9.21702
충전카드	-9.21722
▁인식	-9.21958
고장코드	-9.22074
이나	-9.22117
충전	-9.22417
증발가스	-9.22707
라우터	-9.22868
▁지속	-9.22933
▁진입	-9.23039
카	-9.23294
▁자동변속기	-9.23406
잭	-9.23432
▁접속	-9.23497
▁인터넷연결불가	-9.23534
펌프	-9.23558
▁캡	-9.23771
▁OCV	-9.23786
▁코드	-9.23986
주차장내	-9.24078
려	-9.24078
휴즈	-9.24208
그	-9.24211
▁분이상	-9.24215
스캐너	-9.24271
▁나옴	-9.24301
워셔액통	-9.24974
정비	-9.24977
라	-9.25038
러	-9.25228
레버	-9.25382
▁조립	-9.25481
씨에	-9.2554
혀	-9.25577
▁디	-9.25585
▁동일	-9.25644
스마트키	-9.25713
▁실내	-9.25725
히	-9.25734
컨버터	-9.25767
르	-9.25774
데이터	-9.25774
드라이브	-9.25774
집	-9.25774
징	-9.25774
▁분해	-9.25856
계기	-9.25973
▁전달	-9.25986
정보	-9.26038
제	-9.26214
▁떨어져	-9.26265
▁로우암	-9.26266
▁택배	-9.26275
▁시간	-9.26276
▁구토	-9.26306
▁재고	-9.2635
▁손상부위	-9.26363
저	-9.26458
▁스로틀바디크리닝	-9.26522
▁접점불량	-9.26523
▁지우는중	-9.2653
▁내비작동하지	-9.2653
▁별도조치	-9.26561
▁고정상태	-9.26648
신	-9.26658
▁클러치	-9.2672
▁밸런스	-9.26737
이진	-9.26856
▁폐기	-9.26979
클	-9.27011
봤	-9.27017
설치	-9.27074
검	-9.27122
▁N	-9.27146
▁부팅	-9.27381
▁등	-9.2757
속	-9.27736
재장착후	-9.27807
미션	-9.2787
비치	-9.28203
키박스	-9.28282
▁V	-9.28601
▁신호불량	-9.28745
▁완충	-9.28769
사이드미러	-9.29034
레이	-9.29157
▁창문	-9.29198
▁알림	-9.29204
▁안테나	-9.294
▁탈거후	-9.29529
업체	-9.30181
블루투스	-9.30184
전우	-9.30518
▁등록	-9.30611
제거	-9.30925
▁옆면	-9.31154
외	-9.3176
오디오	-9.31842
▁설치	-9.32082
흔적	-9.32195
▁볼륨	-9.3221
▁주간	-9.32468
매칭	-9.3248
▁보임	-9.32736
전원선	-9.32768
냄새	-9.32782
▁지속적	-9.32783
륜	-9.33036
▁레이더	-9.33158
이트	-9.33411
▁제	-9.33805
해제	-9.34466
▁삽입	-9.35026
워	-9.35092
▁점검진행	-9.35165
안내멘트	-9.35173
SET	-9.35576
▁견인	-9.35636
트렁크	-9.35637
색	-9.35642
항	-9.35708
▁인젝터	-9.35774
팟	-9.35774
갔으나	-9.35776
▁더뉴레이	-9.35778
▁자가진단	-9.35779
소리	-9.35799
▁구매비용	-9.35812
재현	-9.35827
▁소등	-9.35831
리스	-9.35924
▁호스	-9.36101
▁보증입고	-9.36141
타	-9.36449
▁시트조절	-9.36497
하였	-9.36534
▁시	-9.36577
▁복귀	-9.36729
브레이크등전구	-9.3685
급	-9.37218
▁측면	-9.37411
유	-9.37412
▁출고	-9.37453
▁키트	-9.37637
테블릿	-9.37734
▁손잡이	-9.37755
CSA	-9.3792
단선	-9.38409
재장착	-9.38423
와	-9.38537
점프후	-9.38576
▁과거	-9.38705
응	-9.3922
▁고장코드	-9.39254
▁ACC	-9.39299
▁도	-9.39377
▁해당	-9.39454
▁매립형	-9.39509
영	-9.39576
▁스패너	-9.39631
▁재매칭	-9.39695
▁역	-9.39731
▁열	-9.39758
▁주유구캡	-9.39767
때	-9.39802
박스	-9.39849
되고	-9.39942
바	-9.40021
매칭요청	-9.40032
▁센터입고	-9.40162
▁해	-9.40436
창	-9.40597
▁문제어불가	-9.40668
소켓	-9.40947
레	-9.41161
공기압보충	-9.41183
떨림	-9.41296
외부	-9.4149
▁앞타이어	-9.41851
탈부착	-9.41941
▁의심	-9.42139
오일	-9.42153
미	-9.42282
▁보	-9.42329
▁인	-9.4288
매니폴드	-9.42956
폰	-9.43038
온	-9.43131
핸들	-9.43136
▁카메라	-9.43194
추후	-9.43251
▁흡기	-9.43449
V	-9.43467
▁이상무	-9.43521
간	-9.43522
유지	-9.43524
히터	-9.43888
카메라	-9.44065
▁시스템	-9.44239
▁진행건	-9.44455
▁장착완료	-9.44472
불	-9.44659
손잡이	-9.44717
고객	-9.45128
▁조수석앞	-9.45214
키트	-9.45246
체크	-9.45269
▁이	-9.4561
▁기본점검	-9.45679
▁안쪽	-9.45764
울	-9.45769
일반	-9.45853
왕복	-9.46057
재연결	-9.46154
삭제	-9.46448
▁시동꺼짐	-9.46464
탁	-9.46687
E	-9.46694
▁남	-9.46706
브	-9.46822
업	-9.46848
스티커	-9.4685
닝	-9.46866
주행	-9.46867
▁혼	-9.46875
▁베터리	-9.46885
대창기업	-9.46885
릴	-9.46885
앗세이	-9.46885
CAM	-9.46885
▁바닥	-9.46886
▁RFID	-9.46886
▁비상등	-9.46889
운송장	-9.46889
글로브박스	-9.46893
자재	-9.46894
할것	-9.46902
▁매칭확인요청	-9.46937
주유캡	-9.46938
도어락	-9.47043
보드	-9.47145
▁순정	-9.47183
▁테스트주행	-9.4723
ABS	-9.47282
▁업체방문	-9.47308
▁배선고정	-9.4731
▁하우	-9.47372
CS	-9.47447
▁미보유	-9.47494
▁다른	-9.47638
▁일반	-9.47678
하향등	-9.47943
기가	-9.48034
▁처리완료	-9.48044
긴급	-9.48171
필터	-9.48296
자리	-9.48318
▁경고등점등	-9.48616
▁그	-9.48796
버	-9.49001
키제작	-9.49032
브러쉬	-9.49128
▁사진	-9.4924
카드불량	-9.49426
▁잘못	-9.49841
KD	-9.50035
▁이관	-9.50115
해봐	-9.50241
▁플러그	-9.5033
자	-9.50452
링	-9.50585
▁포멧후	-9.50741
위치변경	-9.50797
▁약간	-9.50804
▁롯데	-9.50811
크리닝	-9.50819
▁하체	-9.50849
김	-9.50886
▁로워암	-9.51035
▁캘리퍼	-9.51035
▁번호	-9.51064
▁체크	-9.51068
▁전방추돌	-9.51216
요청함	-9.51263
제동등	-9.51553
후패드	-9.51799
차량떨림	-9.5191
▁안들어옴	-9.52039
셋팅	-9.523
▁예정	-9.52505
요망	-9.52745
▁현장처리	-9.5297
▁방향	-9.53151
시운전결과	-9.5346
발송	-9.53702
남	-9.53834
후미등	-9.54039
▁화	-9.54066
소	-9.54254
▁증발가스	-9.54418
▁정상연결	-9.5449
▁문의	-9.54938
▁나	-9.55101
현재	-9.55109
▁간헐적	-9.55188
▁열선	-9.55247
▁라디오	-9.5534
부족	-9.55369
▁블	-9.55526
점검완료	-9.5562
부위	-9.55659
쏘카존	-9.55783
▁매트	-9.55832
▁유	-9.55855
세트	-9.56046
▁차량위치	-9.5613
▁테스트결과	-9.56414
USB	-9.56481
악취	-9.56586
▁리모컨	-9.56663
스트	-9.56816
▁내비실행	-9.57101
파	-9.57202
점검후	-9.57403
이물질	-9.57749
▁엔진체크경고등	-9.57921
부동액	-9.58244
전좌	-9.58519
회	-9.58608
사이드	-9.58642
바퀴	-9.58743
닉	-9.58809
호스	-9.5896
▁밀림	-9.58987
▁하이패스카드	-9.58996
전방	-9.59042
래	-9.59094
▁눈	-9.59213
▁자체	-9.59317
콜	-9.59333
셔	-9.59354
▁기억	-9.59368
▁플라스틱	-9.59379
시외버스	-9.59381
페	-9.59385
ISG	-9.59385
MDPS	-9.59385
▁NPRIZ	-9.59385
▁부천자동차	-9.59385
▁어샘블리	-9.59385
밸트	-9.59385
부품가격	-9.59385
젠	-9.59385
▁승인득	-9.59386
했던	-9.59388
료	-9.59398
▁사고흔적	-9.59415
▁부속	-9.59424
▁작동안됨	-9.59448
이탈	-9.59452
여수	-9.59469
▁오연결	-9.59479
▁구입	-9.59505
얼라인먼트	-9.59547
분간	-9.5955
완전	-9.59552
체크등	-9.5956
사고	-9.59664
▁착불완료	-9.5978
리전	-9.6005
주행중	-9.60209
조절	-9.60345
▁지정	-9.60726
지역	-9.60745
I	-9.60808
발	-9.60873
마	-9.61043
▁전원불가	-9.61084
▁자가	-9.61128
걸리지	-9.61286
▁운앞	-9.61817
▁대량누설	-9.62096
▁주차위치	-9.62298
위치이동	-9.62742
▁에어	-9.62888
▁전원부	-9.62907
▁썬팅	-9.62939
공임비	-9.63198
▁슬	-9.63286
▁밸브	-9.63379
CM	-9.63584
▁복원	-9.63677
는데	-9.63679
▁DPF	-9.63906
▁일시적	-9.63907
▁높낮이	-9.63909
▁위	-9.63959
▁재접속후	-9.63987
각	-9.64027
▁스팀닥터	-9.64038
▁스티어링	-9.64038
▁꺼짐	-9.64102
▁후방단자	-9.6413
▁전방레이더	-9.64179
DIN	-9.64592
▁와셔	-9.64817
▁대행	-9.64921
반	-9.65423
분이상	-9.65809
조수석뒤	-9.65848
▁연결후	-9.65949
스터	-9.66064
전원케이블	-9.66271
변경후	-9.66488
▁XL	-9.66911
▁만원	-9.6693
▁걸리지	-9.6695
전조등	-9.67277
GDS	-9.67556
DCT	-9.67557
엔진경고등	-9.67658
재	-9.67715
거리	-9.67763
방향지시등	-9.67792
후좌	-9.67903
닫힘	-9.67907
▁부	-9.68064
▁대행비	-9.68356
▁쇠키	-9.68356
기어	-9.6851
재조립	-9.68517
보증대행비	-9.68606
▁우편물	-9.68629
▁안나옴	-9.68655
유심	-9.68903
▁전방추돌센서	-9.69019
▁되나	-9.6913
재부팅	-9.69646
▁구	-9.69739
▁고객	-9.7022
피	-9.70436
UMB	-9.70512
스캐너진단	-9.70621
▁유니트	-9.70634
부품비	-9.70824
▁작동이	-9.70894
동작	-9.71214
▁소음건	-9.71422
▁안되	-9.7143
코일	-9.715
▁발	-9.71605
▁정상시동	-9.72006
내부	-9.72432
점검후정상	-9.72746
주행등	-9.72914
류	-9.72939
▁허브	-9.72947
컴파운드	-9.72954
장애처리	-9.7313
레바	-9.73189
직	-9.73318
산	-9.73533
▁본넷	-9.73568
캐	-9.73604
캐치	-9.73612
소프트웨어	-9.73614
던	-9.73667
[	-9.73671
e	-9.73671
▁SERIES	-9.73671
▁본네트	-9.73671
▁스포티지	-9.73671
▁썬바이저	-9.73671
▁아무런	-9.73671
▁철	-9.73671
▁클락션	-9.73671
브라켓	-9.73671
축	-9.73671
x	-9.73671
셀토스	-9.73671
]	-9.73671
랑	-9.73671
▁세팅	-9.73671
▁음악재생	-9.73671
익죠스트	-9.73671
▁지정장소	-9.73672
CAR	-9.73672
▁AUX	-9.7368
점현대자동차	-9.73682
강서	-9.73684
해보았	-9.73686
▁동일증상	-9.73691
차감	-9.73694
▁미점등	-9.73698
크래	-9.73701
▁보여	-9.73706
제품	-9.73733
재설정	-9.73741
▁매립키	-9.73742
▁안된다고	-9.7376
▁보조브레이크등	-9.73771
▁같은	-9.73845
▁도어제어	-9.73849
포트	-9.73876
▁프로	-9.73887
▁열림	-9.73905
일자동차	-9.73922
▁최근	-9.73934
▁추가	-9.73944
▁이동비	-9.73978
▁일부	-9.74054
▁수선	-9.74071
전조등전구	-9.74099
▁지상이동	-9.74137
▁네비거치대	-9.74247
작업밑	-9.74389
▁음량	-9.74444
후방	-9.74461
▁스캐너점검	-9.74471
안전벨트	-9.74533
▁타이어공기압보충	-9.74595
▁음성	-9.74645
▁왕복	-9.74757
▁체결	-9.74791
배기	-9.74815
촉매	-9.74921
하단	-9.7508
▁미션오일	-9.75211
▁점검결과	-9.75435
하고	-9.75453
▁설정변경	-9.75661
본	-9.75666
▁이동시	-9.7568
공	-9.75684
▁네트워크	-9.75911
사업소	-9.76143
청소	-9.76332
▁확인필요	-9.76545
후륜	-9.77416
교	-9.7756
중앙	-9.78026
▁맞	-9.78123
산소센서	-9.78269
▁임시	-9.78356
KT	-9.78479
▁분할	-9.78491
▁기계	-9.78606
▁개폐	-9.78617
▁제조사	-9.78648
▁PSI	-9.78679
▁사무실	-9.78688
▁주유소	-9.78705
▁스크레치	-9.7872
▁파워박스	-9.78845
▁운뒤	-9.78869
▁견인입고	-9.78924
▁AGMDL	-9.78929
볼륨	-9.79002
▁초기화하였으나	-9.79076
▁주	-9.79182
▁주차비	-9.794
▁신	-9.79571
소음건	-9.79665
▁탈거식	-9.7967
연료	-9.79734
▁처리불가	-9.79963
흡기	-9.80218
열	-9.80346
야	-9.80358
▁전기	-9.80539
락	-9.80651
점	-9.80872
▁CD	-9.80965
▁정	-9.81691
의심	-9.81844
존복귀	-9.82177
▁특	-9.82413
디스크	-9.8278
내비게이션고장	-9.82882
▁성	-9.82928
▁막	-9.83285
입력	-9.83635
작동확인	-9.83699
주행소음	-9.8374
주차	-9.83988
▁ASSY	-9.84335
출력	-9.84659
▁수급	-9.85207
▁AH	-9.85257
점등	-9.85426
후방카메라고장	-9.85577
관	-9.85613
▁꺼	-9.85824
▁확	-9.8588
리콜	-9.86199
▁자동	-9.8649
해야	-9.86543
분실	-9.86775
IB	-9.86797
▁라이	-9.87178
▁누설	-9.87474
전원이	-9.87987
▁긴급	-9.8812
짐	-9.88146
주차구역	-9.882
샤프트	-9.88238
전좌우	-9.88366
윈도우	-9.88463
자국	-9.88639
▁레일	-9.88757
▁지정주차	-9.88761
삽입	-9.89077
▁실시	-9.89119
레이더	-9.89159
▁감지	-9.89163
▁외관	-9.89188
▁팬	-9.89533
▁배치	-9.89671
OBD	-9.89712
황색	-9.8977
▁제어	-9.89832
곳	-9.89989
▁쏠림	-9.90049
▁보정	-9.9007
▁녹	-9.90125
진단	-9.90216
별	-9.90303
▁펌	-9.90312
탱크	-9.90313
발급	-9.90316
널	-9.90325
▁바람	-9.90326
▁월	-9.90336
듯	-9.90338
J	-9.90338
▁리저버	-9.90338
▁튐	-9.90338
공임가격	-9.90338
깅	-9.90338
발전기	-9.90338
인디케이터	-9.90338
머플러	-9.90338
프로그램	-9.90338
▁별다른	-9.90338
서면자동차	-9.90338
▁LTE	-9.90339
▁뒷자석	-9.90339
▁켜지지	-9.9034
종합	-9.90341
▁제너레이터	-9.90341
백미러	-9.90344
▁연료캡	-9.90352
▁어려	-9.90353
▁점화	-9.90354
실화	-9.90356
▁정비소	-9.90367
▁열선시트	-9.90368
순정품	-9.90374
▁들어가	-9.90383
DW	-9.90389
보이지	-9.90397
▁판단	-9.90403
▁재발급	-9.90407
▁도어트립	-9.90407
▁한번	-9.90413
구리스	-9.90414
▁스캔점검	-9.90421
▁주간등	-9.90446
휠가드	-9.90454
테블릿불량	-9.90473
▁후좌타이어펑크	-9.90508
통합케이블	-9.9059
▁지	-9.90599
▁차량정위치	-9.90624
▁포켓파이접촉불량	-9.90898
▁확인되며	-9.90914
탈착후	-9.91062
로닉	-9.91127
▁안함	-9.91342
▁손상이	-9.91536
버클	-9.91588
▁RF	-9.91616
▁본체	-9.91682
하심	-9.91728
재고정	-9.91827
▁접수	-9.91853
▁후디스크	-9.91975
▁걸림	-9.9234
코드	-9.92688
설정	-9.92735
주간주행등전구	-9.92895
▁충전완료	-9.92915
▁들어와	-9.92984
▁시동유지완료	-9.93184
▁시동정상	-9.93346
▁핀	-9.93431
▁얼음	-9.93641
츄에이터	-9.93812
연결후	-9.94044
번호판	-9.94126
점화플러그	-9.94255
웨어	-9.94343
티	-9.94381
자동	-9.94388
▁감도	-9.94829
▁자체가	-9.94835
할	-9.94879
▁꼽	-9.9531
C	-9.95366
▁초기	-9.95496
블락	-9.95578
▁승인	-9.95646
문개방후	-9.95699
▁고무	-9.95761
▁표시	-9.95792
▁구찌	-9.95793
▁필름	-9.95797
▁반응	-9.95808
▁썬루프	-9.96043
▁재접속	-9.96165
▁최대	-9.962
조치완료	-9.96217
▁보증진행비	-9.96307
▁범퍼탈부착	-9.96347
▁테블릿초기화	-9.9652
U	-9.96736
▁작업공임	-9.96974
▁솔레노이드	-9.96988
▁L	-9.97194
▁주차시	-9.97603
▁글	-9.97757
태	-9.97884
층	-9.97886
인식	-9.97979
정품	-9.98098
재설치	-9.98106
점검비	-9.98197
모두	-9.9825
등록	-9.9848
▁OFF	-9.98833
▁네비정상작동	-9.99365
진입	-9.99374
▁영상	-9.99952
메인배선	-10.0006
신품	-10.0007
패	-10.0016
컨넥타	-10.0017
경	-10.0018
낮아	-10.0023
메인	-10.0025
긴출	-10.0033
▁시운전비	-10.0041
▁전방	-10.0064
이동	-10.0067
▁락	-10.0069
수령	-10.0072
빠져	-10.0084
입고정비	-10.0103
▁풀	-10.0112
▁정상출력	-10.0118
▁송	-10.0124
과거형	-10.015
키인식	-10.0167
주유구	-10.0167
▁휴	-10.0182
다고	-10.0188
▁에어백	-10.0202
RPM	-10.0209
기능	-10.0211
▁접지	-10.0223
▁카오디오	-10.0231
▁티클립	-10.0255
▁하단립	-10.0264
▁연료호스	-10.0275
타이어펑크	-10.0302
완	-10.0308
▁심	-10.0318
꺼짐	-10.0322
하면	-10.0326
ACC	-10.033
다자동차유리	-10.0333
매립형	-10.0336
M	-10.0349
▁진단점검	-10.037
경고	-10.0375
엑셀	-10.0381
무	-10.0386
▁해결	-10.0389
▁블락	-10.0425
시간	-10.0452
지지	-10.0461
업체방문요청	-10.0465
잘	-10.0465
썬팅	-10.047
이관	-10.0479
▁배선점검	-10.0513
자체가	-10.0523
달	-10.0545
테	-10.055
에어	-10.0562
하는	-10.0591
▁시동이	-10.0613
BXDL	-10.0633
▁방문필요	-10.0678
▁카워시	-10.0679
▁점프시도	-10.0684
▁점검완료	-10.0693
확인완료	-10.0704
▁후미등	-10.0707
브레이크전구	-10.0724
에어필터	-10.0725
BU	-10.0725
트립	-10.0735
▁브레이크오일	-10.0747
▁배선접촉불량	-10.0763
배선불량	-10.0796
상남	-10.0807
▁자	-10.081
파일	-10.0813
▁현장조치불가	-10.0837
▁경적	-10.0842
▁충격	-10.085
기사	-10.0866
AU	-10.0878
▁휀더	-10.0894
요금	-10.0909
GPS	-10.0913
모	-10.0917
걸	-10.0923
▁ABS	-10.096
해보	-10.0966
▁판	-10.1018
▁뜨	-10.1022
▁거치	-10.1029
▁매니폴	-10.103
킹	-10.1033
조절레버	-10.1033
렛	-10.1033
암	-10.1033
▁포켓	-10.1033
흠	-10.1034
*	-10.1034
▁기어봉	-10.1034
▁끊김	-10.1034
▁데루등	-10.1034
구리스도포완료	-10.1034
껑	-10.1034
꾸	-10.1034
냉간시	-10.1034
뚜	-10.1034
민	-10.1034
북	-10.1034
잎	-10.1034
제네레이터	-10.1034
젤	-10.1034
찍	-10.1034
칩	-10.1034
텟	-10.1034
현대모비스	-10.1034
▁TMAP	-10.1034
명	-10.1034
목	-10.1034
클럭스프링	-10.1034
▁무한로딩	-10.1034
액츄레이터	-10.1034
턴	-10.1034
호텔	-10.1034
▁렌즈	-10.1034
▁길안내	-10.1034
▁직접	-10.1034
▁코딩	-10.1034
하이드로	-10.1034
▁얼라이	-10.1034
▁보령	-10.1034
▁어려움	-10.1034
아웃렛	-10.1034
▁정지등	-10.1034
와샤액	-10.1034
▁네바퀴	-10.1034
▁넘어가지	-10.1035
년차	-10.1035
택배발송	-10.1035
정비사업소	-10.1035
FO	-10.1035
공급	-10.1036
▁신규재비치	-10.1036
TO	-10.1036
받음	-10.1036
▁작동안함	-10.1036
▁이모빌	-10.1038
▁소진	-10.1038
할수	-10.1039
▁전원들어오지	-10.1039
▁워	-10.1039
차후	-10.104
▁공유	-10.104
▁서브	-10.1042
▁휠얼라이먼트	-10.1042
검사	-10.1043
▁제동	-10.1043
▁더블클러치	-10.1044
▁외주	-10.1045
▁재점등	-10.1046
▁부동액보충	-10.1047
불능	-10.1047
▁앞번호판	-10.1047
▁리드	-10.1051
시스템이상	-10.1052
▁사라	-10.1055
새로운	-10.1055
싱글전구	-10.1061
차방문	-10.1066
▁재조정	-10.1069
▁전자	-10.1072
▁앞문	-10.1074
아래	-10.1076
▁번호판등	-10.1078
▁소음발생	-10.1095
▁오일필터	-10.1103
▁부서	-10.1112
다가	-10.1114
지연	-10.114
▁안된다	-10.1149
▁경고등해제	-10.1161
즈	-10.1166
잭재삽입	-10.118
얼	-10.1188
▁주행에	-10.1196
결제	-10.1198
ON	-10.1214
어짐	-10.1217
▁고정불량	-10.1218
배선분리	-10.123
설정변경후	-10.1262
▁엔진소음	-10.1276
전원배선	-10.1278
부품대	-10.1282
파스	-10.1295
▁포켓파이배선	-10.1309
진행함	-10.1333
▁타이어점검	-10.1361
했	-10.1365
▁엔	-10.1381
▁누유	-10.1395
▁기아	-10.1407
▁보조등	-10.1413
인입시	-10.142
후범퍼	-10.1444
캡	-10.1483
점검시	-10.1495
▁높이	-10.151
▁각도	-10.151
연	-10.1536
현	-10.1551
었	-10.1604
▁정상작동됨	-10.1606
▁스타	-10.1608
▁나오	-10.1617
▁펑크의심	-10.1628
▁청구	-10.1638
세차	-10.1642
▁미러	-10.1667
▁급유	-10.1677
▁발견	-10.1679
▁폭설	-10.168
▁눌러	-10.168
부품수급	-10.169
▁냄새	-10.1693
▁심한	-10.1694
▁영수증	-10.1706
▁보관함	-10.1711
하지	-10.1715
▁담배냄새	-10.1722
▁실내필터	-10.1724
유리	-10.1725
▁라우터	-10.1726
▁양면테이프	-10.1733
▁휠하우스커버	-10.174
▁지하주차장	-10.1742
노	-10.1743
▁과	-10.175
카드회수	-10.1754
송	-10.1764
들	-10.1768
▁지하층에	-10.1776
되며	-10.1785
브레이크소음	-10.1786
가스	-10.1793
전면	-10.1821
▁진단기점검	-10.183
결합	-10.1849
▁정상이나	-10.1863
인터	-10.1863
▁테스트정상	-10.1874
오염	-10.1909
작동불량	-10.1915
주행결과	-10.1948
▁트림	-10.1984
▁AD	-10.1989
▁테이프	-10.2001
▁양호하	-10.2009
▁통화	-10.2015
회수	-10.2052
▁급	-10.2065
부착	-10.2079
에어컨	-10.2092
▁방지	-10.2098
내비정상작동	-10.2122
배터리방전	-10.2129
걸림	-10.2149
실행	-10.2181
▁시도했	-10.2199
▁P	-10.2215
펑크흔적	-10.2217
영상	-10.2218
변속기	-10.2236
▁비치함	-10.2258
▁경고등점검	-10.2294
▁K	-10.2297
▁반	-10.2298
▁라인	-10.2302
린	-10.2316
▁워셔	-10.2346
▁언	-10.2397
▁뜸	-10.2401
▁꺼짐현상	-10.2451
▁걸어둠	-10.2464
▁드럼	-10.2469
▁모본	-10.2471
▁밴드	-10.2471
▁부산	-10.2475
▁반납	-10.2494
▁디스	-10.253
▁영점조정	-10.253
▁같은증상	-10.2531
▁핸들리모컨	-10.2546
행시	-10.2551
TPMS	-10.2591
와이파이	-10.2592
배터리점프	-10.261
차량점검	-10.263
에이터	-10.2679
안되	-10.2714
뒷	-10.2719
▁세차	-10.2752
▁이후	-10.2757
▁생	-10.2758
▁워셔액보충	-10.2766
▁재생	-10.277
▁액추에이	-10.2797
▁네비전원	-10.2828
분리	-10.283
▁얼	-10.2846
▁파	-10.286
진행후	-10.2903
지상	-10.2907
사이드브레이크	-10.2919
▁안내	-10.2962
▁하였으나	-10.3006
▁세차불가	-10.301
오일필터	-10.3021
유닛	-10.3127
▁이격	-10.319
문구	-10.3195
▁시동분	-10.3206
▁선제조치	-10.3222
컨트롤	-10.3228
경고등점등	-10.3233
하부	-10.3245
▁쇼바	-10.3249
▁네비초기화	-10.326
▁지역	-10.3293
스케너	-10.3319
채	-10.3341
▁기	-10.3345
분해	-10.335
입고요청	-10.3351
▁결제	-10.3359
후측방	-10.3365
▁브레이크패드	-10.3375
▁포멧	-10.3406
▁육안	-10.3409
리어	-10.3441
세척	-10.3446
▁라디	-10.3455
순정	-10.3457
날	-10.3464
▁키아웃증상	-10.3465
력	-10.3467
▁지우는	-10.3476
님	-10.3492
전달	-10.3498
호	-10.3514
받아	-10.3522
질	-10.353
클립	-10.353
으	-10.353
▁알	-10.3531
룸	-10.3531
▁글로브	-10.3532
▁시가잭	-10.3533
움	-10.3533
릭	-10.3533
틱	-10.3533
털	-10.3533
▁충돌	-10.3534
텍	-10.3534
▁붓	-10.3534
익	-10.3534
지시등	-10.3534
▁촬영	-10.3534
AIL	-10.3534
CAP	-10.3534
CVT	-10.3534
GPIO	-10.3534
▁TGS	-10.3534
▁개스킷	-10.3534
▁긴급제동	-10.3534
▁먹	-10.3534
▁바깥	-10.3534
▁선루프	-10.3534
▁재조임	-10.3534
▁트랜스폼	-10.3534
▁팝업	-10.3534
▁흙탕물	-10.3534
끼임	-10.3534
냉매	-10.3534
대륙시트	-10.3534
빔	-10.3534
세종시	-10.3534
술	-10.3534
스런	-10.3534
옵	-10.3534
캐럴리스트	-10.3534
▁따	-10.3534
▁크랙	-10.3534
▁프런트	-10.3534
▁딜	-10.3534
▁사운드	-10.3534
▁잔	-10.3534
델코	-10.3534
워터펌프	-10.3534
공회전	-10.3534
로어암	-10.3534
마찰	-10.3534
내장제	-10.3534
▁스로틀바디클리닝	-10.3534
▁블로어	-10.3534
▁좋지	-10.3534
감마	-10.3534
판넬	-10.3534
▁복구	-10.3535
▁진흙	-10.3535
쿨러	-10.3535
필요해보임	-10.3535
▁플로어	-10.3535
잠김	-10.3535
▁다른곳	-10.3535
▁본닛	-10.3535
좌후도어	-10.3535
▁동결	-10.3536
록크	-10.3536
란스	-10.3536
▁미약	-10.3536
언락	-10.3536
▁배출	-10.3536
▁기름	-10.3536
▁충진	-10.3536
▁원복	-10.3537
▁거제	-10.3537
라이닝	-10.3537
▁충주	-10.3538
▁연료라인	-10.3538
나감	-10.3538
▁라인전체	-10.3538
▁매니	-10.3539
▁양면	-10.354
▁ADAS	-10.354
▁이물질제거	-10.3541
배기매니폴드	-10.3541
▁블로우	-10.3542
▁엔진체크등점등	-10.3542
▁깜빡이	-10.3542
▁많이	-10.3542
▁상황	-10.3543
OR	-10.3544
버스	-10.3545
재고	-10.3545
▁부식	-10.3546
▁파워아	-10.3547
클리	-10.3547
▁미고정	-10.3549
쏠림	-10.3549
레이터	-10.3551
견인	-10.3552
동파	-10.3553
▁심함	-10.3555
▁라우터불량	-10.3556
▁다량	-10.3557
▁물금	-10.3558
하우스	-10.356
▁양호함	-10.356
선불	-10.356
▁트렁크스위치	-10.3563
▁충전량	-10.3563
▁정면	-10.3565
▁하단부	-10.3566
닫	-10.3572
메인배선불량	-10.3572
▁밧데리방전	-10.3574
▁바로	-10.3579
▁네비매립분해후	-10.3582
▁불	-10.3584
▁유지중	-10.3586
▁하체점검	-10.3588
구동	-10.3589
▁고객이	-10.3591
추가로	-10.3592
퓨즈박스	-10.3592
▁안가능	-10.3596
▁아직	-10.3599
▁날씨	-10.3604
▁엔진오일보충	-10.3605
▁점등됨	-10.3611
▁가야	-10.3616
보정	-10.3616
▁지상층	-10.3621
▁방전된	-10.3622
밀림	-10.3623
▁필요해	-10.3625
▁충전기	-10.3642
▁돌	-10.3646
▁전구류	-10.3651
팬	-10.3652
▁후측방경고등	-10.3666
허브	-10.3669
비스	-10.3672
배기파이	-10.3682
▁조앞	-10.3682
연결안됨	-10.3689
동일	-10.3694
▁울리	-10.3704
록	-10.3719
외관	-10.372
감지	-10.3727
인지	-10.3744
▁재비치완료	-10.3747
실시	-10.3755
범버	-10.3762
▁핸들소음	-10.3772
충격	-10.3774
휀더	-10.3775
스테	-10.3785
재배치	-10.379
▁뒤쪽	-10.3806
레일	-10.3817
경적	-10.3822
▁정상임	-10.3825
쇼바	-10.3827
향균필터	-10.3836
브레이크패드	-10.3836
충돌방지	-10.3841
▁전기차	-10.3854
▁X	-10.3857
둠	-10.386
작동안됨	-10.3861
▁오프	-10.3863
캠샤프트	-10.3871
난다	-10.3887
운전석뒤	-10.3893
잡	-10.3895
전환	-10.3903
이격	-10.3905
기기	-10.3906
▁전원불량	-10.3907
타워	-10.3909
안남	-10.3909
공기압이	-10.3915
▁들어오	-10.3928
나사	-10.395
시동걸	-10.3959
CGV	-10.3959
센서점검	-10.3963
열림	-10.3972
공기	-10.3975
연장	-10.402
▁개방	-10.4054
▁제작	-10.4069
통영	-10.4072
▁BXDL	-10.4073
흙	-10.4074
배선접촉불량	-10.4075
주행중소음	-10.4075
즉	-10.4076
▁물빼	-10.4081
스피커불량	-10.4084
다량누설	-10.409
▁눌	-10.4104
약	-10.4106
해야함	-10.4121
헤드	-10.4139
유무	-10.4146
확	-10.4156
▁시동시	-10.4159
하려	-10.4178
▁아웃	-10.4206
▁위치확인	-10.4214
학	-10.4216
▁재정리	-10.4231
예	-10.4261
▁추	-10.4281
운전	-10.4283
변속	-10.4285
▁중지	-10.4285
▁보관	-10.4286
밀	-10.4298
▁파손점검	-10.4303
손	-10.431
초	-10.4311
▁단차	-10.432
▁시트레버	-10.4322
▁호수	-10.4326
작동하지	-10.4328
▁낮음	-10.4341
▁깨져	-10.4342
기로	-10.4343
▁혼유	-10.4344
▁서울	-10.4349
▁업체방문요청	-10.4355
▁오일보충	-10.4365
현장조치	-10.4365
▁PCB	-10.4371
▁등받이	-10.4371
▁켜졌다	-10.4371
▁붓터치	-10.4371
▁의심됨	-10.4371
▁좌회전	-10.4372
수신	-10.4378
▁서초	-10.4381
▁높이조절	-10.439
▁내용	-10.4395
외부이동	-10.4413
▁오디오볼륨	-10.4414
▁과거기억	-10.4417
정위치	-10.4431
버튼이	-10.4437
타이어점검	-10.4453
▁부분탈거	-10.4454
코	-10.4463
▁휠가이드	-10.4495
▁확인요청	-10.4503
▁업체요청	-10.4525
방카메라	-10.4526
받	-10.4535
▁정상연결후	-10.4546
▁배터리충전	-10.4565
▁소거작업	-10.4578
▁소	-10.4589
▁확인하	-10.4635
▁충	-10.4684
악	-10.4688
▁입력	-10.469
▁마일캡	-10.4725
실	-10.4739
향등	-10.4745
▁구역	-10.4766
컨	-10.4773
얼어	-10.4844
위치조정	-10.4874
▁현장조치완료	-10.4877
배	-10.4881
운전석브레이크	-10.4895
라고	-10.4929
▁방문점검	-10.495
▁정상이	-10.4956
온다	-10.4963
하라	-10.4981
▁내비게이션고장	-10.4998
▁압력센서	-10.5022
▁포	-10.5082
봐야	-10.5082
되었으	-10.5083
대행	-10.5132
주간주행등	-10.5145
분실물	-10.5184
텐션	-10.5235
정상작동함	-10.5277
▁또	-10.5291
▁박스	-10.5297
▁못함	-10.5317
▁잠금	-10.5327
리고	-10.5347
▁이전	-10.5363
변경	-10.5365
▁살짝	-10.5375
▁김해	-10.5378
▁케이스	-10.5403
▁리코딩	-10.5411
▁EGR	-10.5418
▁끊어짐	-10.5418
▁서모스	-10.5418
▁떨어짐	-10.5418
▁외부오염	-10.5447
하게	-10.545
▁매	-10.5456
▁에어크리너	-10.546
▁DIN	-10.5466
점프	-10.5473
▁결합	-10.5549
미등	-10.5598
▁타이어본	-10.5605
▁캠	-10.5623
회수요청	-10.5625
▁이력	-10.5649
▁크	-10.5658
▁흡착	-10.5669
어링	-10.5708
▁모뎀	-10.5726
▁후드	-10.5778
플러그	-10.5788
▁자리	-10.5853
가량	-10.5872
▁현	-10.588
▁실행불가	-10.5897
블박	-10.5919
▁위치조정	-10.5971
▁주행중	-10.5986
장착후	-10.6082
방	-10.6127
▁하이패스전원	-10.6128
▁브러쉬	-10.6148
빼기	-10.6154
▁공기	-10.619
O	-10.62
▁운전석시트	-10.6211
▁LH	-10.6218
실행불가	-10.6225
점프시동	-10.6257
내비소리	-10.628
▁하지	-10.6306
BSD	-10.6313
뒤로	-10.6319
마산	-10.6327
▁우측전조등	-10.6342
▁소거후	-10.6349
▁블루투스연결	-10.6373
▁전환	-10.6375
▁나사	-10.6376
▁안남	-10.6388
▁닫	-10.6397
▁향균필터	-10.6462
파이	-10.6466
놓고	-10.647
쏘카	-10.648
배치	-10.649
▁C	-10.6498
▁단	-10.651
▁O	-10.6525
▁연결이	-10.6536
▁운전석뒤	-10.665
▁통해	-10.6665
후우	-10.6679
탈거후	-10.6687
결	-10.6726
장착후정상	-10.6774
보조	-10.6799
두	-10.6802
오작동	-10.6805
필	-10.6828
현상	-10.683
▁마	-10.6831
세	-10.6839
격	-10.684
나지	-10.6855
▁보이	-10.6856
▁누	-10.6861
팅	-10.6862
케	-10.6863
▁올	-10.6863
당	-10.6863
름	-10.6863
▁기본	-10.6863
▁검색	-10.6865
▁쌍용	-10.6865
▁더뉴	-10.6866
쿨	-10.6866
럭	-10.6866
▁제자리	-10.6866
람	-10.6867
겨	-10.6867
▁핸	-10.6867
▁깜박	-10.6867
▁폭	-10.6867
미숙	-10.6867
방배	-10.6867
졌다	-10.6867
메뉴	-10.6867
멀티	-10.6867
준	-10.6867
흘	-10.6867
CVVT	-10.6867
▁간혈적	-10.6867
▁그런	-10.6867
▁꼬	-10.6867
▁끼워	-10.6867
▁낮은	-10.6867
▁댐퍼	-10.6867
▁도난경보	-10.6867
▁맞춘	-10.6867
▁선바이져	-10.6867
▁어뎁터	-10.6867
▁클락스프링	-10.6867
겐	-10.6867
둥	-10.6867
등속조인트	-10.6867
뜹	-10.6867
랭	-10.6867
렁	-10.6867
리셉터클	-10.6867
맨	-10.6867
멤	-10.6867
밎	-10.6867
박윤기	-10.6867
빵	-10.6867
쁨	-10.6867
서일자동차정비	-10.6867
쉴	-10.6867
오토스탑	-10.6867
옥동점현대자동차	-10.6867
일련번호	-10.6867
잦	-10.6867
짝	-10.6867
천안정비사업소	-10.6867
촉매정화능력저하	-10.6867
컬럼	-10.6867
콘솔	-10.6867
크레탐	-10.6867
타버림	-10.6867
톨	-10.6867
협	-10.6867
▁끝	-10.6867
▁들어왔	-10.6867
될	-10.6867
▁문열기	-10.6867
▁시흥	-10.6867
▁재거치	-10.6867
▁콤비네	-10.6867
급발진	-10.6867
▁붙	-10.6867
페인트	-10.6867
▁굳	-10.6867
▁컴비네이션	-10.6867
▁플랜	-10.6867
올라옴	-10.6867
캠각센서	-10.6867
▁납땜	-10.6867
▁에바크리닝	-10.6867
▁냉각팬	-10.6867
▁엑츄에이터	-10.6867
▁접착	-10.6867
▁통과시	-10.6867
급현대	-10.6867
▁OPE	-10.6867
▁미세하게	-10.6867
▁블로워	-10.6867
▁소캣	-10.6867
콘트롤모	-10.6867
찌그러짐	-10.6867
▁터미널카센타	-10.6867
오일압력스위치	-10.6867
▁크로스	-10.6867
▁좋음	-10.6867
히터컴플리트	-10.6868
예약	-10.6868
▁빠지지	-10.6868
삼방	-10.6868
EPB	-10.6868
닫힌	-10.6868
배선분리정리	-10.6868
▁대쉬보드	-10.6868
▁사라지지	-10.6868
▁여러번테스트	-10.6868
▁가득	-10.6868
▁유압스위치	-10.6868
윈드	-10.6868
백화	-10.6868
▁고객사용	-10.6868
▁환기	-10.6868
DO	-10.6869
DL	-10.6869
성능이상	-10.6869
파킹	-10.6869
▁소모	-10.6869
▁출차	-10.6869
연마	-10.6869
점등된거	-10.687
▁안나와	-10.687
찾을수	-10.687
▁미세	-10.687
▁바람새	-10.687
▁관리인	-10.687
IN	-10.687
방식	-10.6871
▁녹임	-10.6871
위치수정	-10.6871
▁등기발송	-10.6871
계이지	-10.6871
▁누수	-10.6872
저항	-10.6872
▁연료부족	-10.6872
여수자동차	-10.6873
반납존	-10.6873
▁열려	-10.6873
량부족	-10.6873
▁인터넷연결안됨	-10.6873
링크	-10.6874
그외	-10.6874
▁불러	-10.6874
▁브레이	-10.6874
범위	-10.6874
▁시트열선	-10.6874
▁재매립	-10.6875
기록	-10.6875
▁AV	-10.6875
열리지	-10.6876
▁체크엔진	-10.6876
▁보증입고대행비	-10.6877
▁액정	-10.6877
▁스로틀바디청소	-10.6877
▁스포트	-10.6877
▁녹아	-10.6877
▁인터넷연결	-10.6878
▁전원인가	-10.6878
요함	-10.6879
▁외부스티커	-10.6879
음성출력	-10.688
▁주차정위치	-10.688
었음	-10.688
▁메모리회수	-10.6882
▁클립	-10.6882
▁차액	-10.6883
▁서버	-10.6883
▁보유	-10.6885
▁조작	-10.6885
광주	-10.6887
▁필요해보	-10.6888
도어록	-10.6888
▁도어캐치	-10.6888
촉매이상	-10.6888
▁주유카드재배치	-10.6889
탈착식	-10.6889
▁시동불능	-10.6889
▁대량	-10.689
주의	-10.6892
▁미발생	-10.6892
▁해당차량	-10.6893
▁본넷트	-10.6894
거림	-10.6895
백색더	-10.6897
▁동영상	-10.6899
전휀더	-10.6899
▁신형	-10.6901
▁앞디스크	-10.6901
▁유니	-10.6902
▁좌측제동등	-10.6904
▁우측하향등	-10.6904
▁도포	-10.6905
미션쪽	-10.6906
해동작업밑	-10.6909
▁차량쏠림	-10.691
▁건물	-10.6912
나오는	-10.6912
▁걸	-10.6913
▁분진	-10.6915
제일	-10.6916
▁매립내비	-10.6917
동주	-10.6917
▁구형	-10.6919
후방와이퍼	-10.6919
▁인식불가	-10.692
▁에어백점검	-10.6922
▁미니	-10.6922
▁스피드	-10.6925
▁기존연결	-10.6927
▁마이	-10.6927
▁아무	-10.693
는거	-10.693
▁엔진경고등소거	-10.6931
외기	-10.6936
▁SET	-10.6942
▁도어해제	-10.6943
장유	-10.6943
계통	-10.6945
주차라인	-10.6948
▁분시동	-10.6955
의자	-10.6956
▁ON	-10.6958
원존	-10.6965
▁통신가능	-10.6973
▁점등상태	-10.6976
황	-10.6978
▁일반점검	-10.6982
▁작동여부	-10.6984
▁운행에	-10.6993
▁손상은	-10.6995
▁하부소음	-10.6995
▁문제어안됨	-10.6999
▁로어	-10.7003
▁계폐	-10.7006
후정상작동	-10.7008
▁모	-10.7016
되서	-10.702
배선정리	-10.7026
차량내부	-10.7028
▁입출	-10.7032
▁분실건	-10.7032
이안	-10.7047
공기압점검	-10.7053
▁눌리	-10.7055
앞바퀴	-10.7059
주유	-10.7063
▁필요하	-10.7083
▁정기	-10.7091
피스	-10.71
가능하	-10.7101
손상	-10.7111
▁안전	-10.7115
화로	-10.7118
점검필요	-10.7118
▁조수석시트	-10.7132
▁들리	-10.7145
▁매각	-10.7148
린다	-10.7151
▁AU	-10.7157
▁매칭확인	-10.7164
커버탈부착	-10.7182
▁경로	-10.7184
조치불가	-10.721
들어감	-10.7228
▁충전단자점검	-10.7248
계기판	-10.7261
진단기	-10.7286
▁재체결	-10.7293
▁점프선	-10.731
▁잘못연결	-10.7313
▁상남	-10.7321
헤드램프	-10.7339
▁파일	-10.7345
분사	-10.7346
출입구	-10.735
안개등	-10.7382
STS	-10.7382
맵센서	-10.7387
▁보조주행등	-10.7397
전면유리	-10.7409
▁같음	-10.7418
바디크리닝	-10.7429
지하층	-10.7436
▁에어필터	-10.7447
▁전방충돌	-10.7462
통합경고등	-10.7469
강제	-10.7469
라이	-10.7473
▁네비정상	-10.7473
후방센서	-10.7476
▁재시동	-10.7486
나옴	-10.7495
전압이	-10.7499
들어옴	-10.7507
누설	-10.752
점검간	-10.7533
분해후	-10.7534
PB	-10.755
▁만도	-10.7572
구매	-10.7576
▁층에	-10.7594
키아웃	-10.7614
▁아니	-10.7636
용중	-10.7637
▁수동	-10.7642
사고로	-10.7668
연결불가	-10.7672
▁케이블타이	-10.7689
인터넷	-10.7702
▁재결속후	-10.771
리모컨	-10.7717
안내	-10.7723
▁전동	-10.7727
OCV	-10.7728
▁점검비용	-10.7734
케이블불량	-10.7762
▁되	-10.7795
주기	-10.7828
▁펌프	-10.7839
인터넷연결불가	-10.7864
처	-10.7882
▁작동이상	-10.7884
▁실펑크	-10.7895
▁온도	-10.7896
반복	-10.7898
▁안되는	-10.7899
▁떠	-10.7909
▁닫혀	-10.7909
자동변속기	-10.7916
스마트	-10.7918
밧데리	-10.7923
▁동물	-10.7928
▁무상	-10.7945
EB	-10.7958
▁음영	-10.7965
배선점검	-10.7975
▁근처	-10.7976
▁단락	-10.7978
▁소리출력변경	-10.7981
▁깨짐	-10.7981
사용	-10.7981
▁티맵	-10.7981
▁모래	-10.7982
▁배선불량	-10.7991
▁공장	-10.7991
▁과다	-10.7994
▁뜨고	-10.8003
▁지나	-10.8017
▁아예	-10.8017
▁했는데	-10.8017
▁들어	-10.8022
원인	-10.8023
▁에이필러	-10.8037
▁슬라이딩	-10.8039
▁휠밸런스	-10.804
▁각도조절	-10.8041
재생	-10.8041
되나	-10.8043
후면	-10.8043
▁연료펌프	-10.8044
신호	-10.8062
▁재고가	-10.8063
▁차후	-10.8086
수급	-10.8091
▁우측제동등	-10.8094
지속적	-10.8096
▁후방등	-10.8107
▁카바	-10.8114
오일누유	-10.8139
▁뒷쪽	-10.8147
지속	-10.8159
▁정도	-10.8165
▁이탈	-10.8167
캔	-10.8173
▁점검해	-10.818
▁조수석라이트	-10.8187
보임	-10.8187
전방추돌센서	-10.8187
이상무	-10.8188
해결	-10.8189
후진	-10.819
▁주간보조	-10.8195
▁주간주행등전구	-10.8206
이션	-10.8211
▁못	-10.8222
간헐적	-10.8226
테스트결과	-10.8237
캠	-10.8253
자동차유리	-10.826
▁사이	-10.8266
세차불가	-10.8268
열선	-10.829
▁배선탈거	-10.8293
우편물	-10.8294
안나옴	-10.8295
시동확인	-10.8298
라디오	-10.8302
이며	-10.8305
ASSY	-10.8313
스캐너점검	-10.8317
문의	-10.8336
재접속후	-10.8357
▁고정이	-10.8372
쇠키	-10.8378
대행비	-10.8384
연료호스	-10.8386
▁후진시	-10.8401
진행건	-10.8417
티클립	-10.8427
핸들리모컨	-10.843
▁기어	-10.8432
하단립	-10.8434
▁됨	-10.8439
행	-10.8445
같은증상	-10.8455
영점조정	-10.8455
매	-10.8464
반납	-10.8466
에어백	-10.8483
난	-10.8486
진단점검	-10.8493
운행	-10.8493
핀	-10.8499
에어크리너	-10.8502
디스	-10.8503
접지	-10.8507
워셔액보충	-10.8512
외부오염	-10.8527
▁메	-10.8532
체결	-10.8535
포지션	-10.8535
▁후방카메라가	-10.8536
떨어짐	-10.8559
끊어짐	-10.8559
EGR	-10.8559
밴드	-10.856
액추에이	-10.8562
풀	-10.8563
서모스	-10.8563
모본	-10.8565
리코딩	-10.8568
부산	-10.8574
드럼	-10.8577
엔진오일	-10.858
케이스	-10.858
걸어둠	-10.8582
타이어본	-10.8588
휴	-10.859
막	-10.8598
키인식불가	-10.8599
▁M	-10.8602
경고등점검	-10.8609
살짝	-10.8617
가니쉬	-10.8626
김해	-10.8629
상품화	-10.8629
문열림	-10.8631
확인됨	-10.8653
순간	-10.8667
폴딩	-10.8676
아닌	-10.8683
뜸	-10.869
도장면	-10.8693
언	-10.8694
잠금	-10.8694
가운데	-10.8695
이력	-10.8698
시동켜	-10.8699
안걸림	-10.871
네비초기화	-10.8714
땜	-10.8717
복	-10.8735
또	-10.8735
정차	-10.8737
켜짐	-10.874
왼쪽	-10.8741
걸려	-10.8742
내려	-10.875
앞뒤	-10.8752
마운	-10.8752
정렬	-10.8755
현장에	-10.8755
평	-10.8781
워셔	-10.8781
덜	-10.8781
신규	-10.8798
셀	-10.8799
잠	-10.8802
기간	-10.8818
▁점검하	-10.882
빠	-10.886
틀	-10.8862
꺼짐현상	-10.8865
파워모듈	-10.8898
부분이	-10.8908
▁잘걸	-10.8923
지원	-10.8942
스캔	-10.9024
산소	-10.9061
▁안쪽이	-10.9086
길	-10.9108
스티	-10.9108
▁음영지역의심	-10.911
삼	-10.9116
▁편도	-10.9136
못함	-10.9146
▁소음점검	-10.9196
▁작	-10.9242
▁장치	-10.9246
▁빠	-10.9266
통신점검	-10.927
▁소거완료	-10.9288
▁펑크점검	-10.93
▁잠	-10.9319
운행중	-10.9325
연결이	-10.9331
▁덜	-10.9354
▁평	-10.9354
▁후방전원	-10.9365
▁부분이	-10.9378
▁조수석전조등	-10.9388
▁땜	-10.9412
▁폴딩	-10.9466
▁순간	-10.9476
정상동작	-10.9477
▁아닌	-10.9486
▁상품화	-10.9517
▁가니쉬	-10.952
▁문열림	-10.9521
고속	-10.9544
▁작동확인	-10.9575
▁포지션	-10.9595
펑크조치	-10.9606
▁영	-10.9619
▁키인식불가	-10.9627
▁시동켜	-10.9637
정리	-10.9645
음영지역의심	-10.9676
▁주기	-10.9687
전에	-10.9748
▁각	-10.9778
▁좌측주간주행등	-10.9779
▁김	-10.9892
▁현장에	-10.9919
압력센서	-10.9923
공기압경고등	-10.9968
▁캔	-11.0031
같다	-11.0138
설	-11.0155
차량소음	-11.017
▁이상건	-11.0181
비치함	-11.0207
얼라이먼트	-11.0231
▁초	-11.024
▁체결후	-11.0287
▁액	-11.0334
두었	-11.0339
▁통신점검	-11.0344
향	-11.0398
후도어	-11.0415
▁헤드	-11.0436
▁네비실행	-11.0443
아웃	-11.0479
▁G	-11.0512
주차함	-11.052
정상출력	-11.0532
전조수석	-11.0534
▁시운전점검	-11.0535
▁테블릿	-11.0571
보증대행료	-11.0572
충돌경고등	-11.0605
투	-11.0647
▁운라이트	-11.0717
▁탈	-11.0728
▁즉	-11.0732
▁흙	-11.0735
▁매각차키	-11.0764
▁통영	-11.0774
바디	-11.0776
부팅	-11.0787
▁공	-11.0815
방문요청	-11.0825
속도	-11.0829
▁워셔액점검	-11.0838
▁위치변경	-11.0867
▁포함	-11.088
▁만도내비	-11.0951
후방카메라불량	-11.0961
▁CGV	-11.0962
박	-11.0991
탈	-11.1065
▁타워	-11.1073
▁액추	-11.1086
▁F	-11.1086
손상확인	-11.1088
현장세차	-11.1109
입구쪽	-11.114
우후	-11.1143
로우	-11.1164
▁SK	-11.1211
전구개	-11.1221
탈부착공임	-11.1222
감	-11.1248
▁충전단자	-11.1395
▁정상운행	-11.1398
조치함	-11.1404
프트	-11.1452
블랙박스회수	-11.1468
▁휠커버	-11.1474
체	-11.1571
▁모두정상	-11.1733
오는	-11.1765
재인가	-11.1793
딩	-11.1816
ODO	-11.1823
압	-11.1825
▁동영	-11.1829
흔들림	-11.1832
닌	-11.1833
▁싸이드미러	-11.1843
정기	-11.1843
접	-11.1846
▁많	-11.1848
▁깜빡	-11.1848
실린더	-11.1849
거같	-11.1849
삽	-11.185
럼	-11.185
몰딩	-11.1852
물질	-11.1853
▁증발가	-11.1854
CO	-11.1856
합	-11.1856
모빌	-11.1858
았	-11.186
방향지시	-11.1861
말	-11.1862
것같	-11.1862
▁년	-11.1863
▁첫	-11.1863
론트	-11.1863
란	-11.1863
▁보증입고대행	-11.1863
산역	-11.1863
▁찾을	-11.1863
염	-11.1864
▁커넥	-11.1864
▁압력	-11.1864
빌라이	-11.1864
랜	-11.1864
▁영점조	-11.1865
머	-11.1865
▁보증대행	-11.1865
프레셔	-11.1866
쉬	-11.1866
힌	-11.1866
춰	-11.1866
빌	-11.1866
컴플리트	-11.1866
블릿	-11.1866
상승	-11.1866
든	-11.1867
섭	-11.1867
콘	-11.1867
CVVFS	-11.1867
델	-11.1867
엔드볼	-11.1867
택	-11.1867
▁폴	-11.1867
▁느	-11.1867
긁	-11.1867
▁워터인렛	-11.1867
뜯	-11.1867
▁만땅	-11.1867
▁MAP	-11.1867
▁UNB	-11.1867
▁UNLOCK	-11.1867
▁꽂	-11.1867
▁끊기	-11.1867
▁닿아	-11.1867
▁덮개	-11.1867
▁띠띠띠	-11.1867
▁라지에이터	-11.1867
▁리저브	-11.1867
▁모터배터리챠저리셉터클탈부착	-11.1867
▁뮤트	-11.1867
▁부스터압력센서	-11.1867
▁부품수급오래	-11.1867
▁붓펜	-11.1867
▁뺐다	-11.1867
▁사진첨부	-11.1867
▁새척	-11.1867
▁싶음	-11.1867
▁쓰기불량	-11.1867
▁에어콘휠타	-11.1867
▁에탄올	-11.1867
▁엔도볼	-11.1867
▁엔진미미	-11.1867
▁오므기어	-11.1867
▁자기진단	-11.1867
▁차량원존이동	-11.1867
▁컴프레	-11.1867
▁콤	-11.1867
▁퀵비	-11.1867
▁터보바이패스솔레노이드	-11.1867
▁트랙	-11.1867
▁트로트바디크리닝	-11.1867
▁하늘	-11.1867
▁후방잰더	-11.1867
가솔린	-11.1867
갈	-11.1867
겹	-11.1867
골	-11.1867
극	-11.1867
께	-11.1867
꽉	-11.1867
낀	-11.1867
나올수	-11.1867
농	-11.1867
독	-11.1867
듀	-11.1867
딘	-11.1867
럽	-11.1867
레노이드	-11.1867
렸	-11.1867
롱	-11.1867
르노삼성사상정비사업소	-11.1867
뭇	-11.1867
밋션	-11.1867
밖	-11.1867
벌	-11.1867
브래이크	-11.1867
블루정기점검년차	-11.1867
빙	-11.1867
빽	-11.1867
뺴	-11.1867
뽑	-11.1867
뿌	-11.1867
사이드미러조작	-11.1867
세워둠	-11.1867
쉐	-11.1867
슘	-11.1867
시간소요	-11.1867
안맞아	-11.1867
앱	-11.1867
에셈블리	-11.1867
연결돼	-11.1867
예열후	-11.1867
움직임	-11.1867
원상복구	-11.1867
웹	-11.1867
율	-11.1867
임의의실린더	-11.1867
젖	-11.1867
줄	-11.1867
째	-11.1867
짹	-11.1867
차폭등	-11.1867
총	-11.1867
칠	-11.1867
카워쉬	-11.1867
칼	-11.1867
쿵	-11.1867
크락션	-11.1867
킬	-11.1867
킷	-11.1867
탬	-11.1867
탯	-11.1867
터보차저	-11.1867
툭	-11.1867
튤	-11.1867
푸	-11.1867
푸드득	-11.1867
핑	-11.1867
험	-11.1867
효	-11.1867
훼	-11.1867
▁데이타	-11.1867
▁큰	-11.1867
챙겨야함	-11.1867
▁끈	-11.1867
▁데이라이트	-11.1867
▁됬	-11.1867
▁딱딱	-11.1867
▁실리콘	-11.1867
▁혹	-11.1867
탑	-11.1867
RCV	-11.1867
▁멈춰	-11.1867
▁알터네이터	-11.1867
▁언더카바	-11.1867
▁캘리브레이션	-11.1867
▁토사물	-11.1867
불안정	-11.1867
▁온오프	-11.1867
답	-11.1867
▁커버하단부분	-11.1867
▁포켓파이전원안들어옴	-11.1867
▁RESET	-11.1867
▁전후방센서점검	-11.1867
공임천원	-11.1867
▁음영구역의심됨	-11.1867
▁편마모	-11.1867
미끄럼	-11.1867
하던중	-11.1867
세요	-11.1867
전기차하체점검	-11.1867
플리트	-11.1867
▁취소	-11.1867
▁음영구역	-11.1867
▁빠지고	-11.1867
▁윤활유	-11.1867
▁재장작	-11.1867
▁맵센스	-11.1867
룸휴즈장착	-11.1867
아세이	-11.1867
▁타이로드엔드볼	-11.1867
음영구간	-11.1867
▁이동시켜	-11.1867
▁급출발	-11.1867
▁빠지는	-11.1867
▁점멸	-11.1867
연탄	-11.1867
▁긴출처리완료	-11.1867
▁담배재	-11.1867
웜샤프트	-11.1867
▁FPH	-11.1867
▁유압	-11.1868
▁여러번	-11.1868
▁소요	-11.1868
꺼져	-11.1868
▁간섭	-11.1868
▁깜박거림	-11.1868
크루즈	-11.1868
틱틱	-11.1868
휘발유냄새	-11.1868
▁월누락분	-11.1868
▁생겨	-11.1868
보았	-11.1868
▁조향각	-11.1868
▁백업	-11.1868
▁전방추돌방지	-11.1868
▁맞춰	-11.1868
▁볼륨조절버튼	-11.1868
▁결재	-11.1868
▁출력방법	-11.1868
▁컵홀더	-11.1868
벨브	-11.1868
▁자재미보유	-11.1868
실비처리	-11.1868
보강작업	-11.1868
타닥	-11.1868
▁센터입고예정	-11.1868
▁예열	-11.1868
▁스캐닝	-11.1868
▁클릭	-11.1868
▁퍼지	-11.1868
▁야외	-11.1868
오일프레셔	-11.1868
받침대	-11.1868
타는냄새	-11.1869
방청	-11.1869
덕산	-11.1869
▁양면테	-11.1869
▁정차중	-11.1869
▁삼호동	-11.1869
강제개방후	-11.1869
▁년기본점검	-11.1869
▁스롤	-11.1869
▁지켜	-11.1869
화면멈춤	-11.1869
▁옥스	-11.1869
▁아웃사이드	-11.1869
▁잡혀	-11.1869
▁통영시외버스	-11.1869
▁OC	-11.1869
▁주저앉아	-11.1869
▁종류	-11.1869
가드어셈블리	-11.1869
거치형메인배선	-11.1869
▁만도네비	-11.1869
▁잠바	-11.1869
워머	-11.1869
홀더	-11.1869
▁워셔탱크	-11.1869
▁하였는데	-11.187
해놓음	-11.187
▁네비음성	-11.187
▁음악	-11.187
그랜	-11.187
▁시가잭휴즈	-11.187
▁고객님	-11.187
센타입고	-11.187
왕복이동	-11.187
▁종료	-11.187
통신에러	-11.187
▁플라스틱캡	-11.187
▁미출력가능	-11.187
▁보여짐	-11.187
▁노면	-11.187
할때	-11.187
위생불량	-11.187
▁처리불가능	-11.187
메인휴즈	-11.187
누락분	-11.1871
▁여러	-11.1871
먼트	-11.1871
주행중차량떨림	-11.1871
지갑	-11.1871
카센타	-11.1871
▁제자리연결후	-11.1871
▁추천	-11.1871
재부착	-11.1871
대변	-11.1872
▁첫시동	-11.1872
것같음	-11.1872
▁재부팅방지	-11.1872
EV	-11.1872
촉매컨버터	-11.1872
▁여유	-11.1872
▁중앙브레이크전구	-11.1872
▁사업소방문	-11.1872
▁전좌시트레바	-11.1872
▁리모	-11.1873
안넘어감	-11.1873
과열	-11.1873
▁연료라인조정	-11.1873
제자리고정	-11.1873
▁가지고	-11.1873
▁제작사	-11.1873
▁송출	-11.1873
▁추정되며	-11.1873
▁연료탱크	-11.1874
▁오프너	-11.1874
▁내비꺼짐	-11.1874
▁검색됨	-11.1874
긴급세차	-11.1874
케치	-11.1874
UP	-11.1874
ID	-11.1874
▁앞휠가이드	-11.1875
▁미출력	-11.1875
스커	-11.1875
▁조앞라이트전구	-11.1875
▁미변경	-11.1875
TM	-11.1875
비탈거식	-11.1875
▁고압	-11.1875
▁후방단자빠짐	-11.1875
기어박스	-11.1875
작동안된다	-11.1875
▁충전시도	-11.1876
▁후면유리	-11.1876
▁히터호스	-11.1876
항의	-11.1876
▁셋트	-11.1876
▁포켓파이전원재인가	-11.1876
▁미인식	-11.1876
▁안들어	-11.1876
관제	-11.1876
했다가	-11.1876
▁차체	-11.1877
▁핀조정	-11.1877
▁제공	-11.1877
초과	-11.1877
▁이격발생	-11.1877
▁위탁	-11.1878
▁화재	-11.1878
▁특성	-11.1878
▁안풀	-11.1878
▁어제	-11.1879
카존	-11.1879
▁들어오나	-11.1879
▁아파트	-11.1879
▁결제오류	-11.1879
▁땜조치	-11.1879
흡기크리닝	-11.1879
정품사용	-11.188
결정	-11.188
엔진소음발생	-11.188
새는곳	-11.188
거울	-11.188
배선재정리	-11.188
▁에어컨가스	-11.188
▁금액	-11.188
거같음	-11.188
약함	-11.1881
화면터치	-11.1881
▁예상	-11.1881
다시방	-11.1881
▁출차불가	-11.1882
모타	-11.1882
▁채워	-11.1882
도어몰딩	-11.1882
영사	-11.1882
과거기억소거	-11.1882
▁등기비용	-11.1883
▁신호값	-11.1883
▁전원안들어옴	-11.1883
▁스캐	-11.1883
▁운전석윈도우스위치	-11.1884
통합경고등점등	-11.1884
▁불편	-11.1884
▁상세	-11.1884
▁무한	-11.1885
인식안되	-11.1885
휠실린더	-11.1885
▁택배비용	-11.1885
기로함	-11.1885
▁워셔통	-11.1886
▁공사	-11.1886
꺼같	-11.1886
▁입고예정	-11.1886
▁주유부족	-11.1886
▁카드방향	-11.1887
공기압체크	-11.1887
▁상태이며	-11.1887
▁엔진오일팬	-11.1888
DA	-11.1889
▁CAS	-11.1889
▁후진스위치	-11.1889
이동후정상확인	-11.1889
에어밸브	-11.1889
공간	-11.1889
▁그을	-11.1891
소프트웨어업그레이드	-11.1891
▁휠하우스	-11.1891
▁싸이드미러점검	-11.1892
리점	-11.1893
타이어공기압점검완료	-11.1893
▁경과	-11.1893
▁열선배선	-11.1893
▁안꺼짐	-11.1893
레이션	-11.1893
▁손상흔적	-11.1894
▁앞유리파손	-11.1894
색더블	-11.1894
▁요소수보충	-11.1895
▁터보	-11.1895
받이	-11.1896
수신불가	-11.1897
▁고객반납시	-11.1899
▁핸들러	-11.1899
▁브레이크전구좌우	-11.19
되는거	-11.1901
▁요소수보충완료	-11.1902
▁장안	-11.1902
자재받아	-11.1903
저드	-11.1903
▁차량흔들림	-11.1906
화면만	-11.1906
소리남	-11.1906
GB	-11.1907
▁부러	-11.1907
▁필요할	-11.1907
▁플로	-11.1908
프너	-11.1908
▁더러	-11.1908
▁등화	-11.1909
▁좌측후미등	-11.1909
KF	-11.191
히터소음	-11.1911
캠포지션센	-11.1911
▁전원케이블휴즈	-11.1913
▁도색	-11.1913
▁커버탈거	-11.1914
▁찾아	-11.1915
장소	-11.1918
시도	-11.1918
심해	-11.1919
층에주차	-11.1919
▁내비부팅	-11.192
▁우측주간주행등	-11.1924
우후휀더	-11.1925
후휀더	-11.1925
▁타는	-11.1926
안닫힘	-11.1927
▁반납시	-11.1931
▁올라가	-11.1931
방해	-11.1933
매립분해후	-11.1933
▁조립불량	-11.1934
기화	-11.1936
▁나주	-11.1936
▁택배비	-11.1936
▁냉각수온	-11.1938
▁잭어셈블리	-11.1938
탈거해야	-11.1941
▁신규설치	-11.1941
도착	-11.1941
나타	-11.1942
▁사이트	-11.1943
조립	-11.1944
▁강제문개방후	-11.1945
는거같	-11.1946
▁사진촬영	-11.1946
▁운전석브레이크등	-11.1947
▁실내등전	-11.1948
▁이용불가	-11.1948
문해제	-11.1949
▁눈에	-11.1951
SA	-11.1953
▁주유카드분실	-11.1954
▁아님	-11.196
부탁	-11.1961
▁사용불가	-11.1962
▁점등된	-11.1965
▁도어문	-11.1966
▁문제어테스트	-11.1966
후미등점검	-11.1967
속도센서	-11.1969
▁실내등전구	-11.1975
이곳	-11.1976
오더	-11.1978
▁터치정상	-11.198
▁가시동	-11.198
불필요	-11.198
▁정상안내	-11.1981
▁열고	-11.1987
▁이동중	-11.1989
▁보조브레이크	-11.1992
▁글로	-11.1998
간시	-11.2002
▁컴파운드조치	-11.2004
▁네비소리	-11.201
▁주차해	-11.201
▁체결완료	-11.2015
▁휠소음	-11.2016
▁다수	-11.2017
▁조임	-11.2018
재결합	-11.2022
분에	-11.2023
확보	-11.2023
정부	-11.2027
▁전좌시트	-11.203
▁일정	-11.2037
카드회수후	-11.2043
제한	-11.2047
고정키	-11.206
브레이크디스크	-11.2061
▁대기하였	-11.2068
리아	-11.2076
▁좌측라이트	-11.2077
다운	-11.2077
원진	-11.2083
워시	-11.2089
▁조립완료	-11.2092
서크	-11.2096
▁미등전구	-11.2098
▁우편	-11.2099
운행불가	-11.2101
▁전파	-11.2105
비품	-11.2105
▁느껴지	-11.2108
▁한도	-11.2108
정상이며	-11.2111
한계	-11.2112
제로	-11.2115
타이어로	-11.2119
좌측면	-11.2119
▁이중	-11.2125
▁기본점검비	-11.213
카드분실	-11.2135
개조	-11.2137
정상작동되나	-11.214
▁조수석사이드미러	-11.2146
▁육안상	-11.2157
▁상하	-11.2158
▁후방카메라휴즈	-11.2167
가드	-11.2173
▁전우주행등전구	-11.2174
▁파손됨	-11.2188
번호등	-11.2193
플라	-11.2194
▁조수석해드램프	-11.2221
정상삽입후	-11.2222
우사이드미러	-11.2227
▁작동안	-11.2231
크고	-11.2232
▁증	-11.2232
이상코드	-11.2233
▁상부	-11.224
▁카드오류	-11.2242
▁요금	-11.2244
음에	-11.2249
▁틀어	-11.2251
가지	-11.2255
▁카드번호	-11.2264
▁해당업체방문	-11.2269
▁조금	-11.2277
▁안보이	-11.2277
번이상	-11.2284
▁방전상태	-11.2287
회탁송	-11.2289
리트	-11.2291
▁타이어펑크	-11.2301
서부	-11.2309
프리	-11.231
▁방문했으나	-11.2311
▁시동분유지	-11.2314
▁문제인	-11.2314
번호판전구	-11.2318
▁조치불가	-11.2337
▁점검하라	-11.2346
드리	-11.2368
▁분실물확인	-11.2382
타이어공기압점검	-11.2383
차량의	-11.239
▁고정공임	-11.2401
▁파손확인가능	-11.2407
▁출력설정	-11.2416
삽입후	-11.2416
▁테이	-11.2429
▁하면	-11.2442
운전석제동등	-11.2462
CD	-11.2468
번에	-11.2474
▁핸들점검	-11.2489
▁시가	-11.2497
▁인입건	-11.2512
▁기사	-11.2515
전송	-11.2521
기도	-11.2526
▁문제어불량	-11.253
▁조향	-11.2541
EN	-11.2557
▁셋	-11.2595
본드	-11.2598
▁정상충전	-11.2599
▁확인되	-11.2616
▁넣어	-11.2628
▁리셋완료	-11.2664
▁타이어개	-11.2667
고착	-11.2672
▁초기화작업	-11.2689
인가	-11.269
분리재정리	-11.2695
▁차량상태	-11.2702
기억소거	-11.2702
▁돌아	-11.2702
▁정상주행	-11.2723
▁전브레이크	-11.2748
경보	-11.2751
▁수행	-11.2752
▁운전석도어	-11.2775
려놓	-11.2806
▁박	-11.2813
▁게이지	-11.2816
열선스위치	-11.2817
방향시	-11.2826
▁열리	-11.2834
▁엔진점검	-11.2839
대납	-11.2852
▁해드	-11.2859
해본	-11.287
▁요	-11.2903
선점검	-11.2903
업그레이드완료	-11.2914
한것	-11.2925
▁고장인	-11.2934
▁오버	-11.2978
앞타이어	-11.2987
▁작동건	-11.2996
▁네	-11.2999
▁가	-11.2999
등등	-11.3009
정상연결	-11.3011
전원탈거	-11.3021
매립	-11.3021
언더커버탈부착	-11.3043
▁의	-11.3069
▁잘됨	-11.3074
▁타	-11.3084
차량방전	-11.3086
▁네트워크연결	-11.3094
탈락	-11.3097
LE	-11.3107
▁해동후	-11.3121
▁배선연결	-11.3157
회로	-11.3185
이상건	-11.3203
작업비	-11.3218
메모리카드	-11.3257
예정	-11.3274
통신이상	-11.328
▁정상화	-11.3291
▁시트탈부착	-11.3291
청	-11.3313
▁해봐	-11.3345
▁여부	-11.3356
▁달	-11.3369
정상수치	-11.337
OL	-11.3374
▁범퍼탈착	-11.3378
기통	-11.3391
▁코	-11.3394
▁플레이	-11.3456
라이트경고등	-11.3469
▁배선점검후	-11.3485
▁리콜	-11.3521
고정불가	-11.3535
▁관	-11.355
▁방문예정	-11.3553
▁무	-11.3586
▁힘	-11.3589
▁쓰	-11.3597
▁마감	-11.3611
▁재인입	-11.3612
▁EC	-11.363
▁IC	-11.3637
▁됐	-11.365
시에	-11.3659
▁올려두	-11.3664
▁시도중	-11.3667
서점검	-11.3674
▁덕	-11.3683
▁내부고정	-11.3691
▁강제문개방	-11.3693
작동함	-11.3707
▁타이로드	-11.3737
▁음향	-11.3742
▁해야	-11.375
냉각수	-11.3755
▁스텝	-11.3755
▁구멍	-11.3756
▁찢어	-11.3758
▁타다	-11.3794
▁조회	-11.3797
▁시트조절레버	-11.3804
▁APK	-11.381
▁모시팀	-11.381
▁시그널	-11.381
▁전신주	-11.381
▁메세지	-11.381
▁와	-11.3827
▁글라스런	-11.3842
▁조작미숙	-11.3843
장애블락	-11.3852
▁장기미세차	-11.3863
▁첨	-11.3864
▁진단기사용	-11.3867
▁주행등좌우	-11.3879
▁트로트바디크리너	-11.3897
▁우체	-11.39
▁앞패드	-11.3924
▁점검문구	-11.3933
▁약	-11.3937
▁활	-11.3972
납	-11.3974
정상안내멘트	-11.4012
▁해당업체방문요청	-11.4012
엑셀소음	-11.4045
▁에러	-11.4084
▁후방카메라잭	-11.4121
▁시동걸리	-11.414
▁풀리	-11.4168
▁반전	-11.4177
▁실	-11.4178
▁보증진행	-11.4183
▁점프후시동분	-11.4185
▁흡착부	-11.4186
엑츄레이	-11.4193
▁오토	-11.4197
▁저하	-11.4197
▁나와	-11.4211
회수후	-11.424
▁후방카메라고장	-11.424
작동됨	-11.4245
▁다이	-11.4246
▁워셔액정상작동	-11.4337
네비정상작동	-11.4361
▁조정완료	-11.4365
회수완료	-11.444
정상확인	-11.4446
보조제동등	-11.4478
▁고객센	-11.4484
▁시간이	-11.4493
점화코일	-11.4496
전좌우타이어	-11.4509
RA	-11.452
소음제거	-11.4539
후정상확인	-11.4548
차량내	-11.4564
재인입시	-11.4589
요소수	-11.4626
엔진체크등	-11.4635
새	-11.4649
시동불가	-11.4664
전원재	-11.4677
이상확인	-11.4688
요청건	-11.4713
▁꺼지	-11.4719
착	-11.4821
불가능	-11.4859
뒷범퍼	-11.4869
대납비	-11.4888
▁DCT	-11.4926
버튼이상	-11.4927
▁GDS	-11.4928
연결됨	-11.4949
해동	-11.4956
남은	-11.504
▁사이드미러점검	-11.5059
카오디오	-11.5068
▁한	-11.5076
초기화진행	-11.5079
방향	-11.508
▁닫힘	-11.5081
차량위치	-11.5106
접촉	-11.5168
▁조사	-11.5182
방지	-11.5217
▁안좋	-11.5232
전압	-11.5244
와이어	-11.5258
▁핀텐	-11.5262
작	-11.5275
▁작동정상	-11.5277
▁차량에	-11.5316
LC	-11.5319
단말기신호	-11.5333
코어	-11.5359
시동불량	-11.5375
▁키로	-11.5437
▁이어	-11.5443
▁틀	-11.5494
거치형	-11.5519
들어오지	-11.5537
▁패	-11.5556
상태점검	-11.5578
작동가능	-11.5634
보충완료	-11.5672
점검요청	-11.5704
통행	-11.5718
▁난	-11.5719
▁상향	-11.5732
▁스캔	-11.5777
정상작동가능	-11.578
▁연결점검	-11.5816
엔진체크	-11.5844
▁요망	-11.5878
노즐	-11.5883
전원커넥터	-11.5948
▁배	-11.5995
▁점	-11.6013
니스	-11.6044
▁프로파워	-11.6073
시거잭	-11.6094
벨	-11.614
음영지역	-11.6154
추정	-11.6164
계속	-11.6166
▁운행중	-11.617
▁창	-11.6213
하기	-11.6216
잘못	-11.6221
초기셋팅	-11.6222
CAN	-11.6239
▁셀	-11.6254
▁진행완료	-11.6254
▁지원	-11.6328
▁기간	-11.6329
▁정렬	-11.6345
통신불가	-11.6355
특이사항	-11.6373
▁왼쪽	-11.6374
▁켜짐	-11.6377
▁걸려	-11.6381
▁마운	-11.6383
되	-11.64
스피커	-11.6411
실내등	-11.6416
안들어옴	-11.6425
▁내려	-11.643
▁가운데	-11.647
▁도장면	-11.6474
▁안걸림	-11.6492
▁한다	-11.6514
오토큐	-11.6529
▁하이	-11.6557
글	-11.6559
포켓파이불량	-11.6585
DM	-11.6618
테이프	-11.6619
시도했	-11.667
동물털	-11.6683
구역	-11.6693
▁속도	-11.6715
▁차량떨림	-11.6731
은행	-11.6736
▁탈거완료	-11.6736
좋은	-11.675
▁아이	-11.6767
메	-11.6791
뒷문	-11.6803
LL	-11.6811
▁분실물회수	-11.6837
▁입	-11.6838
브레이크오일	-11.6874
양호	-11.6901
처리불가	-11.6941
▁때	-11.6958
▁부위	-11.697
지하	-11.6976
안테나	-11.6976
주유구캡	-11.7008
코드삭제	-11.7035
옆면	-11.7055
조사	-11.7056
문제어불가	-11.708
전방추돌	-11.7084
탈거식	-11.711
엔진체크경고등	-11.7116
스패너	-11.713
증상미재현	-11.7136
전륜	-11.7141
재매칭	-11.7147
센터입고	-11.7155
솔레노이드	-11.7182
알림	-11.7199
창문	-11.7214
해당	-11.7228
네비전원	-11.7229
▁보충완료	-11.7232
스토	-11.7249
연결안	-11.7251
전방레이더	-11.7265
캘리퍼	-11.7278
로워암	-11.7279
스팀닥터	-11.7327
스티어링	-11.7327
와셔	-11.7333
사진	-11.7334
조수석앞	-11.7334
후방카메라잭	-11.734
하체	-11.7349
▁과거형코드	-11.7359
통합	-11.738
후방단자	-11.7393
소리출력	-11.7415
AGMDL	-11.7424
높낮이	-11.7428
DPF	-11.743
일시적	-11.743
센	-11.7431
롯데	-11.748
파워박스	-11.7484
약간	-11.7491
견인입고	-11.7504
▁심하	-11.7515
네트워크	-11.7522
못	-11.7524
▁응	-11.7527
초기	-11.754
휠가이드	-11.7554
스크레치	-11.7555
나와	-11.7574
SK	-11.7575
사무실	-11.7577
▁선	-11.7583
PSI	-11.7584
보증진행비	-11.759
주유소	-11.7597
저하	-11.7607
▁동	-11.7609
제조사	-11.7609
범퍼탈부착	-11.7612
복원	-11.7622
안쪽	-11.7637
▁여	-11.7646
홀	-11.7673
완충	-11.7675
텐	-11.7685
테블릿초기화	-11.7693
휠하우스커버	-11.7696
키로	-11.7697
반전	-11.7707
지하주차장	-11.771
음량	-11.7711
썬루프	-11.7721
양면테이프	-11.7731
작동하지만	-11.7747
분할	-11.7753
주차비	-11.7764
추가	-11.7777
담배냄새	-11.7782
실내필터	-11.7783
과거기억	-11.7794
와샤	-11.7804
운뒤	-11.782
▁납	-11.7829
입고점검	-11.7832
방문필요	-11.7833
진단기점검	-11.7841
활	-11.7841
지하층에	-11.7844
영수증	-11.7858
카바	-11.7865
보관함	-11.7866
필름	-11.7868
구찌	-11.7868
표시	-11.7869
반응	-11.7872
누락	-11.788
재정리	-11.7883
오디오볼륨	-11.7883
최대	-11.7885
정상이나	-11.7909
높이조절	-11.7918
슬	-11.7927
증발가스대량누	-11.7929
작업공임	-11.7939
트로트바디크리너	-11.795
사고차	-11.7951
전기차	-11.7952
테스트정상	-11.7961
베	-11.7962
승인	-11.7964
에러	-11.7964
주차시	-11.7965
맞	-11.7973
고무	-11.7975
붓터치	-11.7981
켜졌다	-11.7981
PCB	-11.7983
좌회전	-11.7985
폭설	-11.7987
▁수신	-11.7987
발견	-11.7988
눌러	-11.7988
주저앉	-11.799
해당업체방문요청	-11.7996
등받이	-11.7998
첨	-11.7998
장기미세차	-11.8
서초	-11.8
진단기사용	-11.8001
배터리충전	-11.8004
추	-11.8007
풀리	-11.8007
차량이동	-11.801
부분탈거	-11.8011
슬라이딩	-11.8015
휠밸런스	-11.8015
우측제동등	-11.8017
각도조절	-11.8019
급유	-11.802
에이필러	-11.8022
연료펌프	-11.8023
조작미숙	-11.803
글라스런	-11.803
들어	-11.8032
후진시	-11.8035
주행등좌우	-11.8049
포멧	-11.8056
떨	-11.8072
소거작업	-11.8073
했는데	-11.8076
메세지	-11.8078
전신주	-11.8079
시그널	-11.8079
모시팀	-11.8079
APK	-11.8079
기계	-11.8092
깨져	-11.8093
혼유	-11.8093
낮음	-11.8094
심한	-11.8102
임시	-11.8117
재고가	-11.8126
강제문개방	-11.8131
시운전비	-11.8131
하이패스카드	-11.814
시트조절레버	-11.8154
썬	-11.8158
찢어	-11.8158
구멍	-11.8161
스텝	-11.8161
꼽	-11.8162
깨짐	-11.8167
▁손	-11.8172
뜨고	-11.8172
앞패드	-11.8174
티맵	-11.8175
모래	-11.8176
호수	-11.818
관리	-11.8189
근처	-11.8189
후방등	-11.8191
아예	-11.8193
현장조치완료	-11.8195
음향	-11.8196
단락	-11.82
타이로드	-11.8202
청구	-11.8202
약품	-11.8203
서울	-11.8217
타다	-11.8217
OD	-11.8226
▁예	-11.8231
조회	-11.824
공장	-11.824
▁밀	-11.8243
IE	-11.8251
우측전조등	-11.8256
음영	-11.826
뒷쪽	-11.8267
덕	-11.8269
단차	-11.8272
과다	-11.8273
UM	-11.8282
소리출력변경	-11.8283
▁변속	-11.8284
내용	-11.8285
개폐	-11.8288
기본점검비	-11.8293
업체요청	-11.8297
나오	-11.8301
▁올려	-11.8306
보관	-11.8309
됐	-11.8323
쏘	-11.834
무상	-11.8346
떠	-11.8361
닫혀	-11.8371
IC	-11.8376
마감	-11.8387
차량위치확인	-11.8406
쓰	-11.8406
▁멘트	-11.8414
백	-11.8419
동물	-11.843
점검문구	-11.8432
▁비	-11.8435
정상연결후	-11.8452
눌	-11.8454
조수석라이트	-11.8464
보증진행	-11.8465
스타	-11.8466
재인입	-11.8488
특수세차	-11.8509
▁블랙박스카드	-11.8523
확인요청	-11.8548
온도	-11.8576
▁학	-11.8582
뒤브레이크등	-11.8597
사이드미러점검	-11.86
▁연	-11.8604
▁타이어장착	-11.8613
운전석라이트	-11.863
▁약품	-11.8656
지나	-11.8675
운전석전조등	-11.8689
브레	-11.8705
안되는	-11.8777
트웨어	-11.8779
탈거완료	-11.8781
▁SO	-11.8786
지상주차	-11.88
코드소거	-11.8818
시동이	-11.8857
▁렉	-11.8862
배선분리재	-11.8866
센타	-11.8866
▁유무	-11.8881
UL	-11.8893
▁재결속	-11.8926
초기화하였으나	-11.8932
보이	-11.8937
장착완료	-11.894
▁장	-11.8959
타이로	-11.8974
의심됨	-11.899
▁해야함	-11.904
▁하려	-11.907
정도	-11.9083
션램프	-11.9094
▁다량누설	-11.9105
사이	-11.9108
브레이크점검	-11.9155
▁운전	-11.9196
▁스피커불량	-11.9236
위치에	-11.93
하지만	-11.9302
오토	-11.9303
▁옆면이	-11.9307
네	-11.9327
넣	-11.9335
BL	-11.9391
▁핸들조	-11.9415
네비게이션초기화	-11.9437
시트레버	-11.9449
▁연장	-11.945
▁후방카메라배선	-11.9472
시운전점검	-11.9488
타이어마모로	-11.9508
▁들어옴	-11.952
수치	-11.9522
▁안열	-11.9542
▁주유카드비치	-11.9582
아자동차	-11.9602
▁정상장착	-11.964
점검결과	-11.9645
게이지	-11.9767
▁BX	-11.9783
▁바디크리닝	-11.9815
재장착후정상작동	-11.9818
▁연결잘	-11.9825
조수석열선	-11.9834
울어	-11.9842
▁BXFL	-11.9847
▁주유해	-11.9848
점프시도	-11.9877
▁지하층음영지역	-11.9916
▁잡	-11.9976
다기	-11.9999
수동	-12.0004
운전석전	-12.0028
▁흡기캠	-12.0097
▁정상작동하	-12.0128
다이	-12.0148
하이	-12.0161
▁문여	-12.0302
NE	-12.031
SE	-12.0351
우디스크	-12.0372
복귀	-12.046
▁저	-12.0466
중지	-12.0485
▁발생한	-12.0538
력이	-12.0658
불량의심됨	-12.0658
▁블박회수	-12.0864
▁추후재	-12.0874
높이조	-12.0889
롤	-12.0907
▁중앙부	-12.0954
플	-12.0963
시트탈부착	-12.1006
각도조	-12.1011
작동불가	-12.1016
파이프	-12.1077
걸기	-12.1107
좌측전조등	-12.1123
전방충돌	-12.116
▁지연	-12.117
접촉불량점검	-12.1243
▁화면꺼	-12.1269
▁느껴	-12.1276
켜놓	-12.1282
▁재접	-12.1302
▁점프분	-12.1332
▁전우주행등	-12.1374
은상태	-12.1384
지는	-12.1424
▁내부설정	-12.145
검후	-12.1471
품사용	-12.1607
▁스피드속	-12.1631
▁앞뒤	-12.1654
촬영완료	-12.1669
동공	-12.167
▁새는거	-12.1699
분해후재조립	-12.171
▁안들	-12.1714
▁올라	-12.1716
▁작동되	-12.1734
▁매립분해	-12.1738
비게이션	-12.1742
찾	-12.1744
측방	-12.1749
▁네비메인	-12.1749
▁네비매립	-12.1765
차료	-12.1769
▁원주	-12.1772
틀바디	-12.1774
▁고객반납	-12.179
▁전원컨넥	-12.1791
어와	-12.1795
온센서	-12.1807
▁주유카드결	-12.1813
가이드	-12.1815
▁봉	-12.1824
켜	-12.1824
강	-12.1826
수석뒤	-12.1833
▁작동하	-12.1835
포지션센서	-12.1838
컨넥	-12.1841
프론트휠	-12.1842
견	-12.1842
커	-12.1846
▁높	-12.1846
였으나	-12.1847
였	-12.1848
변	-12.1851
까	-12.1851
넘어감	-12.1853
▁시동가능	-12.1855
먼	-12.1857
닛	-12.1857
갑	-12.1858
령	-12.1858
▁흔들	-12.1858
흡	-12.1858
볼	-12.1858
▁승	-12.1859
퍼	-12.186
옴	-12.1861
놓음	-12.1861
애처리비	-12.1861
▁넘어가	-12.1861
▁환	-12.1862
순	-12.1862
족	-12.1862
팀	-12.1862
업그레이	-12.1862
였으	-12.1862
윈	-12.1862
▁네비게이션소리출력	-12.1862
▁휀	-12.1862
▁증발	-12.1862
애	-12.1863
▁냉각	-12.1863
득	-12.1863
▁옥	-12.1863
넬	-12.1863
루	-12.1863
긴	-12.1863
위생	-12.1863
받침	-12.1864
▁헤	-12.1864
▁제너레이	-12.1864
▁삼호	-12.1864
닥	-12.1864
웨	-12.1864
▁찢	-12.1865
▁컵홀	-12.1865
방법	-12.1865
▁쏠	-12.1865
갔	-12.1865
요소	-12.1865
랙박스	-12.1865
롯	-12.1865
▁담배	-12.1865
▁깨	-12.1865
찰	-12.1866
▁휘발유	-12.1866
▁찌그러	-12.1866
튼	-12.1866
캣	-12.1866
멸	-12.1866
츠	-12.1866
탄	-12.1866
▁블랙	-12.1866
▁삭	-12.1866
▁웜	-12.1866
샤액	-12.1866
작동정상	-12.1866
▁쇼	-12.1866
취	-12.1866
넥터	-12.1867
니폴드	-12.1867
침	-12.1867
쉬보드	-12.1867
윤활	-12.1867
즐	-12.1867
렌	-12.1867
▁샤	-12.1867
껴	-12.1867
미끄	-12.1867
큐	-12.1867
망	-12.1867
몰	-12.1867
모리카드	-12.1867
엑츄에	-12.1867
멈	-12.1867
춤	-12.1867
기압센서	-12.1867
▁타이로드엔드	-12.1867
렐	-12.1867
빨	-12.1867
쇄	-12.1867
큼	-12.1867
툴	-12.1867
튜	-12.1867
뜬	-12.1867
빅	-12.1867
앉음	-12.1867
잴	-12.1867
▁챙겨	-12.1867
댐	-12.1867
데리방전	-12.1867
▁제네레	-12.1867
▁찌	-12.1867
급출동	-12.1867
따따	-12.1867
스프링	-12.1867
LOCK	-12.1867
Y	-12.1867
Z	-12.1867
▁성능	-12.1867
▁싸이	-12.1867
▁트랜스	-12.1867
갤	-12.1867
겉	-12.1867
굴	-12.1867
권	-12.1867
글라스	-12.1867
껏	-12.1867
꼼	-12.1867
꽁	-12.1867
뀜	-12.1867
끌	-12.1867
낄	-12.1867
낙	-12.1867
낡	-12.1867
낭	-12.1867
낸	-12.1867
냅	-12.1867
냇	-12.1867
냐	-12.1867
넘	-12.1867
넴	-12.1867
녁	-12.1867
놑	-12.1867
눔	-12.1867
늦	-12.1867
닐	-12.1867
닙	-12.1867
댑	-12.1867
돈	-12.1867
돔	-12.1867
둔	-12.1867
뒀	-12.1867
듬	-12.1867
떼	-12.1867
뛰	-12.1867
띠	-12.1867
렘	-12.1867
렵	-12.1867
뢰	-12.1867
룩	-12.1867
르노삼성	-12.1867
륵	-12.1867
맟	-12.1867
맥	-12.1867
맴	-12.1867
맺	-12.1867
멩	-12.1867
몬	-12.1867
몾	-12.1867
몿	-12.1867
묻	-12.1867
뭔	-12.1867
밍	-12.1867
밒	-12.1867
바이패스	-12.1867
밝	-12.1867
밞	-12.1867
벅	-12.1867
벗	-12.1867
병	-12.1867
뷰	-12.1867
븐	-12.1867
뺀	-12.1867
섬	-12.1867
셨	-12.1867
셴	-12.1867
솧	-12.1867
싣	-12.1867
써	-12.1867
쎄	-12.1867
쎈	-12.1867
쑥	-12.1867
쓸	-12.1867
씩	-12.1867
앵	-12.1867
엄	-12.1867
엘	-12.1867
옇	-12.1867
욕	-12.1867
있	-12.1867
젓	-12.1867
정화능력	-12.1867
죽	-12.1867
쥬	-12.1867
짤	-12.1867
쩌	-12.1867
챠저	-12.1867
쳬	-12.1867
친	-12.1867
캬	-12.1867
켁	-12.1867
켄	-12.1867
켐	-12.1867
켰	-12.1867
쿠	-12.1867
킴	-12.1867
턱	-12.1867
톡	-12.1867
톤	-12.1867
틈	-12.1867
팔	-12.1867
펀	-12.1867
펫	-12.1867
풍	-12.1867
핏	-12.1867
햐	-12.1867
헐	-12.1867
헛	-12.1867
헨	-12.1867
홈	-12.1867
횟	-12.1867
훨	-12.1867
휜	-12.1867
흰	-12.1867
힐	-12.1867
힝	-12.1867
▁밧	-12.1867
렀	-12.1867
봣	-12.1867
궈	-12.1867
껐	-12.1867
낵	-12.1867
닦	-12.1867
첸	-12.1867
틴	-12.1867
듈	-12.1867
똑	-12.1867
패스카드	-12.1868
▁크루	-12.1868
크리너	-12.1868
치수정	-12.1869
▁블루	-12.1869
바이저	-12.187
▁클럭	-12.187
CU	-12.187
플러	-12.187
윈도우스위치	-12.1871
시동꺼	-12.1871
터치가	-12.1871
터리방전	-12.1872
▁슬라이	-12.1873
장애처	-12.1873
요한	-12.1873
▁DC	-12.1875
미널	-12.1875
켜지	-12.1875
조인트	-12.1876
▁DI	-12.1877
업무	-12.1877
센스	-12.1879
▁후측방경고	-12.1879
어오	-12.1881
구역의심	-12.1881
착식	-12.1882
엔진룸	-12.1883
PM	-12.1885
러짐	-12.1885
된다고	-12.1886
TI	-12.1886
보강	-12.1889
▁볼륨조절	-12.189
지역의심	-12.1891
소음점검	-12.1892
잭휴즈	-12.1892
▁OF	-12.1893
PA	-12.1896
▁소거되	-12.1896
AT	-12.1899
▁제자	-12.19
모스	-12.1905
US	-12.1907
TE	-12.1908
대행료	-12.1908
보충하였	-12.1908
안되었	-12.1908
행등	-12.1909
간출	-12.191
▁물려	-12.191
▁주유카	-12.1914
후정상확	-12.1915
출발	-12.192
▁재배	-12.1921
각센서	-12.1927
사항	-12.1929
들림	-12.1929
CK	-12.193
구간	-12.1931
결함	-12.1931
파이불량	-12.1932
▁주저	-12.1934
ES	-12.1936
바디청소	-12.1941
▁정상작	-12.1943
선정리	-12.1944
소센서	-12.1945
입고대행비	-12.1947
결후	-12.1948
FL	-12.1953
PS	-12.1954
선이	-12.1954
정기점검	-12.1955
체가	-12.1956
로틀바디	-12.1959
어져	-12.196
인배선불량	-12.1962
AG	-12.1968
등점등	-12.1968
ER	-12.1971
▁실비	-12.1974
▁워터	-12.1976
센서오	-12.1977
보증대	-12.1979
그러	-12.1979
▁하향	-12.1991
일캡	-12.1991
로틀	-12.1992
로딩	-12.1997
실물	-12.1998
영지	-12.2004
▁출입	-12.2005
스포	-12.2006
ST	-12.2011
타입	-12.2019
회전	-12.2021
전원재인가	-12.2038
AR	-12.2045
송장	-12.2047
AM	-12.2048
화하였으나	-12.2051
▁자재미	-12.2057
▁주차위	-12.2066
RE	-12.2072
타입고	-12.2072
어시스	-12.2087
작업시간	-12.2088
터리	-12.2095
▁소음발	-12.2103
크리	-12.2104
▁안걸	-12.2116
▁로워	-12.2118
상자	-12.2121
▁앞유	-12.2129
시트레바	-12.2132
▁두	-12.2136
임비	-12.2142
을수	-12.2145
오지	-12.2146
착후	-12.215
파트	-12.2156
▁서면	-12.2164
▁고정안	-12.217
아내	-12.217
AN	-12.2173
조수석브레이크	-12.2174
시외	-12.2207
단자빠짐	-12.2219
에바	-12.2223
▁안된	-12.2227
▁기스	-12.2228
작동되나	-12.2235
▁전원불	-12.2246
공차	-12.2266
박스에	-12.2267
테이	-12.2288
▁전좌휠	-12.2306
어주	-12.231
▁재장	-12.2333
증기	-12.2335
트라	-12.2336
음건	-12.2341
정작업	-12.2345
▁인계	-12.2378
▁차량이	-12.2392
색싱글	-12.2406
카에	-12.2424
▁타이어공기	-12.2426
유리파손	-12.244
전화	-12.2444
▁장기	-12.2467
▁내장	-12.2472
좌측에	-12.248
도중	-12.2525
▁전조	-12.2543
▁비상	-12.2604
간이	-12.2612
▁배터리방	-12.2619
▁제거불가	-12.263
이동후	-12.263
▁특이	-12.2639
정지	-12.2652
가능함	-12.2677
▁조라이트	-12.2722
▁내비화면	-12.2726
버하단	-12.2728
▁조수	-12.274
▁향	-12.2787
여닫	-12.2833
▁해보	-12.2843
테프	-12.2883
▁넣	-12.2885
입고대행	-12.291
트롤	-12.291
고등	-12.2934
▁시스	-12.2937
개방후	-12.2945
▁블로	-12.2971
부착후	-12.2992
잘됨	-12.3024
시도중	-12.307
스위치배선	-12.31
이스	-12.3105
PH	-12.3118
앞라이트전구	-12.3154
▁RP	-12.3187
조향	-12.3238
작동점검	-12.328
업체방문필요	-12.3342
이들	-12.3348
▁시리	-12.3357
주행등전구	-12.3377
대량누설	-12.3392
방문예정	-12.3423
▁후좌브레이크	-12.3428
재삽입	-12.3459
중이라	-12.346
인치이	-12.3496
▁연결해	-12.3514
▁자국	-12.3578
크로	-12.3581
▁전범	-12.3585
시지	-12.3615
▁윈도우	-12.3675
내주	-12.3676
전좌타이어	-12.3692
▁차량문	-12.3706
▁배선정	-12.3773
▁내비정상	-12.3779
▁했다	-12.3816
부트	-12.3816
적이	-12.3851
▁매각차	-12.3851
▁레바	-12.3872
▁네비전원컨넥	-12.3875
상연결	-12.3957
배선연결	-12.3989
▁측	-12.4021
▁주차구역	-12.4028
지등	-12.4128
정상적	-12.4169
▁지상주차	-12.4276
RI	-12.4321
▁방문하	-12.4362
▁후범퍼	-12.4368
지고	-12.4375
전패드	-12.4425
고지	-12.4497
OB	-12.463
바이	-12.4638
스카드	-12.4661
전우타이어	-12.4703
오일보충	-12.4742
수완료	-12.4758
▁울	-12.4776
테스트주행	-12.4837
▁음	-12.4867
카메라로	-12.4958
동후	-12.4966
▁)	-12.5331
▁앞라이트	-12.5393
시동유지	-12.5393
▁파손확인	-12.5425
로터	-12.5622
니션	-12.5694
설치완료	-12.5762
▁투	-12.5764
-(	-12.5837
접속후	-12.5878
▁내비작동	-12.5883
▁I	-12.6008
전카드	-12.6078
인도	-12.6096
▁배터리점프후	-12.6104
▁현대카	-12.6108
▁운전석전조등	-12.6119
입구	-12.617
▁양	-12.6192
▁브레	-12.6256
들어와	-12.6358
이사	-12.6414
▁접속불	-12.6585
▁자리이	-12.6589
▁이상이	-12.6607
방전확인	-12.6708
버리	-12.6719
고정이	-12.6786
▁백	-12.6824
신호불량	-12.6896
스로	-12.6901
오디오버튼	-12.6915
▁쏘	-12.7011
▁UM	-12.7156
오프	-12.7209
▁OD	-12.7307
▁음량조	-12.7352
▁썬	-12.7415
▁관리	-12.748
가로	-12.7492
▁떨	-12.76
▁부품값	-12.7693
▁통신이	-12.7753
▁와이	-12.7783
▁주저앉	-12.7793
생	-12.7804
▁베	-12.7869
점등입고	-12.7872
▁사고차	-12.7912
량의	-12.7926
▁누락	-12.8053
카드장착	-12.8098
이안됨	-12.8142
▁위치이동	-12.8161
▁와샤	-12.8246
▁차량이동	-12.8433
와이	-12.8447
▁텐	-12.8548
▁홀	-12.8575
▁바	-12.8738
▁통합	-12.8947
작동중	-12.9083
▁센	-12.9141
▁완	-12.9204
▁폰	-12.9289
인드	-12.9302
▁하였	-12.9393
새고	-12.9446
▁되고	-12.9616
프로	-12.9879
▁지하주차	-13.0254
전원부	-13.0282
▁거	-13.0606
▁운전석라이트	-13.0643
▁타이	-13.069
부오염	-13.0788
전점검	-13.0882
걸린	-13.0968
▁요청함	-13.1216
녹인	-13.1532
후시동	-13.157
▁착	-13.168
급조치	-13.1833
▁연결안	-13.1837
▁맵	-13.1852
대기	-13.1874
들어오	-13.2007
확인후	-13.208
▁부품비	-13.2126
최	-13.2233
▁버	-13.289
타이어공기압	-13.3058
주기초기	-13.3272
▁벨	-13.3707
▁입구	-13.4109
▁장착후	-13.4151
▁시동걸	-13.4295
▁레	-13.456
시고	-13.4677
후우타이어	-13.4925
▁삼	-13.5204
혹	-13.528
펜	-13.5281
큰	-13.5282
퀵	-13.5283
잰	-13.5284
싶	-13.5285
뺐	-13.5286
밋	-13.5287
므	-13.5288
▁길	-13.5289
뮤	-13.5289
땅	-13.529
됬	-13.5291
돼	-13.5292
덮	-13.5293
닿	-13.5294
늘	-13.5295
끈	-13.5296
꽂	-13.5297
흥	-13.5298
휘	-13.5299
혈	-13.53
텝	-13.5301
탐	-13.5302
컵	-13.5303
컬	-13.5304
춘	-13.5305
챠	-13.5306
챙	-13.5307
웜	-13.5308
왔	-13.5309
붙	-13.531
법	-13.5311
멍	-13.5312
멀	-13.5313
뎁	-13.5314
끝	-13.5315
끄	-13.5316
꼬	-13.5317
굳	-13.5318
폼	-13.5319
팝	-13.532
탕	-13.5321
첫	-13.5322
찢	-13.5323
잔	-13.5324
왼	-13.5325
먹	-13.5326
륙	-13.5327
렬	-13.5328
럴	-13.5329
딱	-13.533
깥	-13.5331
텔	-13.5332
콤	-13.5333
앉	-13.5334
싸	-13.5335
셉	-13.5336
느	-13.5337
튐	-13.5338
윤	-13.5339
육	-13.534
숙	-13.5341
살	-13.5342
빡	-13.5343
많	-13.5344
뒤타이어	-13.5345
따	-13.5345
표	-13.5346
촬	-13.5347
철	-13.5348
죠	-13.5349
밴	-13.535
끼	-13.5351
균	-13.5352
졌	-13.5353
월	-13.5354
샘	-13.5355
앗	-13.5356
쇼	-13.5357
뜨	-13.5358
담	-13.5359
놓	-13.536
탱	-13.5361
좋	-13.5362
젝	-13.5363
쇠	-13.5364
눈	-13.5365
깨	-13.5366
환	-13.5367
허	-13.5368
폭	-13.5369
붓	-13.537
년	-13.5371
깜	-13.5372
캘	-13.5373
찌	-13.5374
맷	-13.5375
덴	-13.5376
픈	-13.5377
엑	-13.5378
끊	-13.5379
혼	-13.538
쏠	-13.5381
솔	-13.5382
봐	-13.5383
멧	-13.5384
씨	-13.5385
퀴	-13.5386
츄	-13.5387
척	-13.5388
왕	-13.5389
옥	-13.539
알	-13.5391
승	-13.5392
뎀	-13.5393
봉	-13.5394
쌍	-13.5395
샤	-13.5396
밧	-13.5397
높	-13.5398
폐	-13.5399
앙	-13.54
륨	-13.5401
냄	-13.5402
템	-13.5403
릿	-13.5404
펌	-13.5405
객	-13.5406
련	-13.5407
되었	-13.5407
올	-13.5408
런	-13.5409
뉴	-13.541
삭	-13.5411
폴	-13.5412
빼	-13.5413
싱	-13.5414
돌	-13.5415
낮	-13.5416
론	-13.5417
누	-13.5418
휀	-13.5419
헤	-13.542
같	-13.5421
꺼	-13.5422
컴	-13.5423
밸	-13.5424
넷	-13.5425
냉	-13.5426
억	-13.5427
핸	-13.5428
램	-13.5429
셋	-13.543
녹	-13.5431
멘	-13.5432
퓨	-13.5433
흔	-13.5434
귀	-13.5435
규	-13.5436
Q	-13.5437
웃	-13.5438
칭	-13.5439
셈	-13.544
촉	-13.5441
딜	-13.5442
랙	-13.5443
넥	-13.5444
펑	-13.5445
켓	-13.5446
능	-13.5447
증	-13.5448
충	-13.5449
요	-13.545
